{
  "version": "1.0",
  "truncation": null,
  "padding": null,
  "added_tokens": [
    {
      "id": 0,
      "content": "<PAD>",
      "single_word": false,
      "lstrip": false,
      "rstrip": false,
      "normalized": false,
      "special": true
    },
    {
      "id": 1,
      "content": "<UNK>",
      "single_word": false,
      "lstrip": false,
      "rstrip": false,
      "normalized": false,
      "special": true
    },
    {
      "id": 2,
      "content": "<SOS>",
      "single_word": false,
      "lstrip": false,
      "rstrip": false,
      "normalized": false,
      "special": true
    },
    {
      "id": 3,
      "content": "<EOS>",
      "single_word": false,
      "lstrip": false,
      "rstrip": false,
      "normalized": false,
      "special": true
    }
  ],
  "normalizer": {
    "type": "NFKC"
  },
  "pre_tokenizer": {
    "type": "Sequence",
    "pretokenizers": [
      {
        "type": "UnicodeScripts"
      },
      {
        "type": "ByteLevel",
        "add_prefix_space": true,
        "trim_offsets": true,
        "use_regex": true
      }
    ]
  },
  "post_processor": {
    "type": "TemplateProcessing",
    "single": [
      {
        "SpecialToken": {
          "id": "<SOS>",
          "type_id": 0
        }
      },
      {
        "Sequence": {
          "id": "A",
          "type_id": 0
        }
      },
      {
        "SpecialToken": {
          "id": "<EOS>",
          "type_id": 0
        }
      }
    ],
    "pair": [
      {
        "SpecialToken": {
          "id": "<SOS>",
          "type_id": 0
        }
      },
      {
        "Sequence": {
          "id": "A",
          "type_id": 0
        }
      },
      {
        "SpecialToken": {
          "id": "<EOS>",
          "type_id": 0
        }
      },
      {
        "Sequence": {
          "id": "B",
          "type_id": 0
        }
      },
      {
        "SpecialToken": {
          "id": "<EOS>",
          "type_id": 0
        }
      }
    ],
    "special_tokens": {
      "<EOS>": {
        "id": "<EOS>",
        "ids": [
          3
        ],
        "tokens": [
          "<EOS>"
        ]
      },
      "<SOS>": {
        "id": "<SOS>",
        "ids": [
          2
        ],
        "tokens": [
          "<SOS>"
        ]
      }
    }
  },
  "decoder": {
    "type": "ByteLevel",
    "add_prefix_space": true,
    "trim_offsets": true,
    "use_regex": true
  },
  "model": {
    "type": "BPE",
    "dropout": null,
    "unk_token": null,
    "continuing_subword_prefix": "",
    "end_of_word_suffix": null,
    "fuse_unk": false,
    "byte_fallback": false,
    "ignore_merges": false,
    "vocab": {
      "<PAD>": 0,
      "<UNK>": 1,
      "<SOS>": 2,
      "<EOS>": 3,
      "!": 4,
      "\"": 5,
      "#": 6,
      "$": 7,
      "%": 8,
      "&": 9,
      "'": 10,
      "(": 11,
      ")": 12,
      "*": 13,
      "+": 14,
      ",": 15,
      "-": 16,
      ".": 17,
      "/": 18,
      "0": 19,
      "1": 20,
      "2": 21,
      "3": 22,
      "4": 23,
      "5": 24,
      "6": 25,
      "7": 26,
      "8": 27,
      "9": 28,
      ":": 29,
      ";": 30,
      "<": 31,
      "=": 32,
      ">": 33,
      "?": 34,
      "@": 35,
      "A": 36,
      "B": 37,
      "C": 38,
      "D": 39,
      "E": 40,
      "F": 41,
      "G": 42,
      "H": 43,
      "I": 44,
      "J": 45,
      "K": 46,
      "L": 47,
      "M": 48,
      "N": 49,
      "O": 50,
      "P": 51,
      "Q": 52,
      "R": 53,
      "S": 54,
      "T": 55,
      "U": 56,
      "V": 57,
      "W": 58,
      "X": 59,
      "Y": 60,
      "Z": 61,
      "[": 62,
      "\\": 63,
      "]": 64,
      "^": 65,
      "a": 66,
      "b": 67,
      "c": 68,
      "d": 69,
      "e": 70,
      "f": 71,
      "g": 72,
      "h": 73,
      "i": 74,
      "j": 75,
      "k": 76,
      "l": 77,
      "m": 78,
      "n": 79,
      "o": 80,
      "p": 81,
      "q": 82,
      "r": 83,
      "s": 84,
      "t": 85,
      "u": 86,
      "v": 87,
      "w": 88,
      "x": 89,
      "y": 90,
      "z": 91,
      "{": 92,
      "|": 93,
      "}": 94,
      "¡": 95,
      "¢": 96,
      "£": 97,
      "¤": 98,
      "¥": 99,
      "¦": 100,
      "§": 101,
      "¨": 102,
      "©": 103,
      "ª": 104,
      "«": 105,
      "¬": 106,
      "®": 107,
      "¯": 108,
      "°": 109,
      "±": 110,
      "²": 111,
      "³": 112,
      "´": 113,
      "µ": 114,
      "¶": 115,
      "·": 116,
      "¸": 117,
      "¹": 118,
      "º": 119,
      "»": 120,
      "¼": 121,
      "½": 122,
      "¾": 123,
      "¿": 124,
      "Â": 125,
      "â": 126,
      "ã": 127,
      "ä": 128,
      "å": 129,
      "æ": 130,
      "ç": 131,
      "è": 132,
      "é": 133,
      "Ċ": 134,
      "č": 135,
      "Ġ": 136,
      "Ģ": 137,
      "ģ": 138,
      "Ĥ": 139,
      "ĥ": 140,
      "Ħ": 141,
      "ħ": 142,
      "Ĩ": 143,
      "ĩ": 144,
      "Ī": 145,
      "ī": 146,
      "Ĭ": 147,
      "ĭ": 148,
      "Į": 149,
      "į": 150,
      "İ": 151,
      "ı": 152,
      "Ĳ": 153,
      "ĳ": 154,
      "Ĵ": 155,
      "ĵ": 156,
      "Ķ": 157,
      "ķ": 158,
      "ĸ": 159,
      "Ĺ": 160,
      "ĺ": 161,
      "Ļ": 162,
      "ļ": 163,
      "Ľ": 164,
      "ľ": 165,
      "Ŀ": 166,
      "ŀ": 167,
      "Ł": 168,
      "ł": 169,
      "Ń": 170,
      "Ġå": 171,
      "Ġä": 172,
      "Ġæ": 173,
      "Ġè": 174,
      "Ġç": 175,
      "ãĢ": 176,
      "ä¸": 177,
      "Ġ>": 178,
      "ĠãĢ": 179,
      "čĊ": 180,
      "Ġä¸": 181,
      "âĢ": 182,
      "Ġ<": 183,
      "Ġé": 184,
      "ĠčĊ": 185,
      "äº": 186,
      "ĠâĢ": 187,
      "ä½": 188,
      "ä»": 189,
      "Ġäº": 190,
      "Ġä»": 191,
      "å¤": 192,
      "è¿": 193,
      "Ġä½": 194,
      "åı": 195,
      "OS": 196,
      "ĥ½": 197,
      "ĠS": 198,
      "Ġå¤": 199,
      "Ġè¿": 200,
      "Ġåı": 201,
      "ĠU": 202,
      "ä¹": 203,
      "ĠP": 204,
      "ĠE": 205,
      "å¥": 206,
      "æľ": 207,
      "èĢ": 208,
      "Ġ:": 209,
      "æĹ": 210,
      "åĲ": 211,
      "Ġ;": 212,
      "Ġ,": 213,
      "ĠÂ": 214,
      "Ġ)": 215,
      "Ġ(": 216,
      "åĽ": 217,
      "ĠæĹ": 218,
      "Ġ!": 219,
      "ĠèĢ": 220,
      "Ġå¥": 221,
      "Ġæľ": 222,
      "ĠåĽ": 223,
      "ĠåĲ": 224,
      "Ġ?": 225,
      "Ġä¹": 226,
      "ĠSOS": 227,
      "æĪ": 228,
      "®¶": 229,
      "²¡": 230,
      "âĤ": 231,
      "æī": 232,
      "âĤ¬": 233,
      "å¾": 234,
      "æĦ": 235,
      "æĸ": 236,
      "¡Į": 237,
      "åľ": 238,
      "ĺ¯": 239,
      "æŃ": 240,
      "ç»": 241,
      "ļĦ": 242,
      "³ķ": 243,
      "å·": 244,
      "ĴĮ": 245,
      "¸¸": 246,
      "å°": 247,
      "æĥ": 248,
      "¾İ": 249,
      "åŃ": 250,
      "ĩĮ": 251,
      "è¯": 252,
      "ł·": 253,
      "NK": 254,
      "Ł¥": 255,
      "ĠUNK": 256,
      "¦ģ": 257,
      "åĪ": 258,
      "ĩº": 259,
      "¬¡": 260,
      "ĠåŃ": 261,
      "º«": 262,
      "Ŀ¢": 263,
      "¦Ĥ": 264,
      "ľĭ": 265,
      "¼ļ": 266,
      "µ·": 267,
      "½ĵ": 268,
      "Ħ¶": 269,
      "ķ¿": 270,
      "Ħ¿": 271,
      "īį": 272,
      "ĬĬ": 273,
      "Ġç»": 274,
      "¯¹": 275,
      "¢«": 276,
      "Ģ»": 277,
      "ĠåĪ": 278,
      "Ĥ£": 279,
      "Ķ¨": 280,
      "¼Ģ": 281,
      "ĿĢ": 282,
      "ĠEOS": 283,
      "«ĺ": 284,
      "Ġæĥ": 285,
      "AD": 286,
      "ĩª": 287,
      "Ġæĸ": 288,
      "ĠPAD": 289,
      "¬¬": 290,
      "´»": 291,
      "Ŀ¥": 292,
      "Ġd": 293,
      "İ»": 294,
      "ĠæĦ": 295,
      "Ĺ´": 296,
      "Ġåľ": 297,
      "¿ĥ": 298,
      "¹´": 299,
      "ħ¶": 300,
      "Ī±": 301,
      "İ°": 302,
      "Ġå·": 303,
      "®ĥ": 304,
      "ĠæŃ": 305,
      "ĠæĪ": 306,
      "§į": 307,
      "Ġè¯": 308,
      "ĠJ": 309,
      "Ġæī": 310,
      "ĠG": 311,
      "ĠD": 312,
      "ĠY": 313,
      "ĶŁ": 314,
      "Ġf": 315,
      "ĠâĤ¬": 316,
      "ĠM": 317,
      "ģĵ": 318,
      "Ġå°": 319,
      "ĠãĢĲ": 320,
      "Ġ7": 321,
      "ĠV": 322,
      "Ġ\\": 323,
      "Ġå¾": 324,
      "ĠT": 325,
      "ĠãĢĳ": 326,
      "ĠA": 327,
      "ĠÂ£": 328,
      "Ġ=": 329,
      "Ġs": 330,
      "Ġ\"": 331,
      "Ġ0": 332,
      "ĠL": 333,
      "Ĭ¨": 334,
      "ĠZ": 335,
      "Ġq": 336,
      "ĠF": 337,
      "Ġl": 338,
      "Ġ}": 339,
      "Ġ.": 340,
      "Ġr": 341,
      "ĠW": 342,
      "Ġn": 343,
      "Ġ*": 344,
      "Ġ@": 345,
      "Ġa": 346,
      "Ġj": 347,
      "ĠãĢģ": 348,
      "ĠãĢĤ": 349,
      "ĠâĢĻ": 350,
      "Ġp": 351,
      "Ġ4": 352,
      "Ġ5": 353,
      "ĠK": 354,
      "Ġt": 355,
      "Ġg": 356,
      "Ġx": 357,
      "ĠâĢĺ": 358,
      "Ġ6": 359,
      "Ġ2": 360,
      "ĠN": 361,
      "ĠQ": 362,
      "Ġc": 363,
      "ĠX": 364,
      "Ġu": 365,
      "Ġv": 366,
      "ĠC": 367,
      "ĠâĢĿ": 368,
      "Ġ1": 369,
      "Ġ3": 370,
      "ĠI": 371,
      "Ġ/": 372,
      "ĠR": 373,
      "Ġ'": 374,
      "ĠâĢľ": 375,
      "Ġk": 376,
      "Ġo": 377,
      "Ġ$": 378,
      "Ġ&": 379,
      "Ġ+": 380,
      "Ġ]": 381,
      "Ġb": 382,
      "Ġ{": 383,
      "ĠH": 384,
      "Ġ#": 385,
      "Ġz": 386,
      "ĠãĢĬ": 387,
      "Ġ-": 388,
      "Ġ8": 389,
      "Ġm": 390,
      "è¡Į": 391,
      "Ġi": 392,
      "Ġw": 393,
      "ĠO": 394,
      "Ġ[": 395,
      "ĠB": 396,
      "Ġh": 397,
      "Ġy": 398,
      "ĠÂ¥": 399,
      "Ġ9": 400,
      "Ġ|": 401,
      "Ġe": 402,
      "Ġ^": 403,
      "ä¹ĭ": 404,
      "å¤´": 405,
      "ç¾İ": 406,
      "æĪĲ": 407,
      "åĴĮ": 408,
      "Ġ%": 409,
      "ä½į": 410,
      "å¾Ĺ": 411,
      "æ²¡": 412,
      "ĠãĢĭ": 413,
      "éĥ½": 414,
      "å¤©": 415,
      "è¿ĺ": 416,
      "æ³ķ": 417,
      "ä¸Ń": 418,
      "åıª": 419,
      "æľŁ": 420,
      "æĸ¯": 421,
      "å®¶": 422,
      "ä½Ĩ": 423,
      "æīĭ": 424,
      "åľ°": 425,
      "å°±": 426,
      "æĺ¯": 427,
      "èµ·": 428,
      "ä¸ĭ": 429,
      "äºĭ": 430,
      "ä¼ļ": 431,
      "èº«": 432,
      "éĩĮ": 433,
      "ä¹Ł": 434,
      "æĦŁ": 435,
      "æ¬¡": 436,
      "çļĦ": 437,
      "ä»¥": 438,
      "è¿ĩ": 439,
      "èĢĮ": 440,
      "å¸¸": 441,
      "è¿Ļ": 442,
      "æĿ¥": 443,
      "ä¸º": 444,
      "å¥¹": 445,
      "äº²": 446,
      "æł·": 447,
      "çĿĢ": 448,
      "éĤ£": 449,
      "äºĨ": 450,
      "åĲį": 451,
      "ä»İ": 452,
      "å¥³": 453,
      "æŃ£": 454,
      "å·²": 455,
      "å½ĵ": 456,
      "å¯¹": 457,
      "Ġå®¶": 458,
      "Ġä¸İ": 459,
      "ç»ı": 460,
      "åŃ¦": 461,
      "è¯´": 462,
      "å¦Ĥ": 463,
      "ĠçŁ¥": 464,
      "ä¸¤": 465,
      "ä¸İ": 466,
      "åıĳ": 467,
      "æĪĳ": 468,
      "ç»Ļ": 469,
      "å¼Ģ": 470,
      "æĬĬ": 471,
      "è¦ģ": 472,
      "ä¸į": 473,
      "ä»¬": 474,
      "ä»Ģ": 475,
      "æĹ¥": 476,
      "æŃ¤": 477,
      "æĥħ": 478,
      "åĬ¨": 479,
      "è¢«": 480,
      "éĿ¢": 481,
      "Ġæ²¡": 482,
      "ä¸ª": 483,
      "ä½ł": 484,
      "Ġä»Ģ": 485,
      "å·±": 486,
      "ä¸ĸ": 487,
      "Ġä¸į": 488,
      "å¤§": 489,
      "åıĪ": 490,
      "ä¹Ī": 491,
      "èĢģ": 492,
      "æĹ¶": 493,
      "åĲİ": 494,
      "åĽ½": 495,
      "ĠåĲĮ": 496,
      "åĩº": 497,
      "çĦ¶": 498,
      "èĩª": 499,
      "ĠæĹł": 500,
      "Ġæľī": 501,
      "æīĢ": 502,
      "æĥ³": 503,
      "æľī": 504,
      "ĠèĢħ": 505,
      "æĦı": 506,
      "åīį": 507,
      "ĠçļĦ": 508,
      "Ġéĥ½": 509,
      "äºº": 510,
      "Ġä»ĸ": 511,
      "èĢħ": 512,
      "ĠåŃĲ": 513,
      "åĦ¿": 514,
      "æĢ»": 515,
      "Ġæĺ¯": 516,
      "å¥½": 517,
      "æĹł": 518,
      "Ġä¹ĭ": 519,
      "åĪ°": 520,
      "åĪĨ": 521,
      "éķ¿": 522,
      "Ġçľĭ": 523,
      "äºĽ": 524,
      "å¤ļ": 525,
      "Ġè¿ĺ": 526,
      "æľĢ": 527,
      "æĸ¹": 528,
      "åľ¨": 529,
      "åŃĲ": 530,
      "çľĭ": 531,
      "éģĵ": 532,
      "ĠçĶ¨": 533,
      "ä¸Ģ": 534,
      "Ġå¤´": 535,
      "Ġå¥¹": 536,
      "å¾Ī": 537,
      "ĠåŃ¦": 538,
      "Ġç»ı": 539,
      "ĠæĦŁ": 540,
      "çİ°": 541,
      "çĶŁ": 542,
      "Ġåĩº": 543,
      "ä½ľ": 544,
      "ä»ĸ": 545,
      "è¿Ľ": 546,
      "åİ»": 547,
      "å¹´": 548,
      "Ġå¸¸": 549,
      "Ġæ³ķ": 550,
      "ä½¿": 551,
      "Ġä½Ĩ": 552,
      "åı¯": 553,
      "å¿ĥ": 554,
      "çŁ¥": 555,
      "Ġç¬¬": 556,
      "Ġéķ¿": 557,
      "è¯Ŀ": 558,
      "Ġç»Ļ": 559,
      "ĠåĪ°": 560,
      "ĠåĪĨ": 561,
      "Ġæĸ¹": 562,
      "Ġè¦ģ": 563,
      "ä¸Ĭ": 564,
      "Ġæīĭ": 565,
      "åħ¶": 566,
      "èĥ½": 567,
      "é«ĺ": 568,
      "ĠåĦ¿": 569,
      "Ġæł·": 570,
      "Ġæ´»": 571,
      "ĠéĿ¢": 572,
      "Ġäºİ": 573,
      "Ġæĥ³": 574,
      "å®ĥ": 575,
      "Ġåīį": 576,
      "Ġé«ĺ": 577,
      "Ġåı¯": 578,
      "ĠåĽŀ": 579,
      "å°ı": 580,
      "Ġæĥħ": 581,
      "ĠæĪĳ": 582,
      "ĠåĴĮ": 583,
      "ĠçĦ¶": 584,
      "Ġåıª": 585,
      "ĠæĹ¶": 586,
      "Ġåľ¨": 587,
      "æ´»": 588,
      "Ġå¦Ĥ": 589,
      "ĠæĢ»": 590,
      "ĠéĩĮ": 591,
      "ĠéĹ´": 592,
      "Ġå¤§": 593,
      "åĲĮ": 594,
      "åĽŀ": 595,
      "ĠåĽł": 596,
      "Ġå·²": 597,
      "Ġè¯Ŀ": 598,
      "çĶ¨": 599,
      "ç§į": 600,
      "ĠçĪ±": 601,
      "Ġäºº": 602,
      "Ġå¤ļ": 603,
      "Ġè¿Ľ": 604,
      "åĽł": 605,
      "Ġæĸ¯": 606,
      "ĠæŃ¤": 607,
      "ç¬¬": 608,
      "éĹ´": 609,
      "Ġä¸Ń": 610,
      "äºİ": 611,
      "Ġäº²": 612,
      "Ġå¤©": 613,
      "ĠåıĪ": 614,
      "ĠèĢģ": 615,
      "ĠæľŁ": 616,
      "Ġä¹Ł": 617,
      "ĠæĬĬ": 618,
      "ĠäºĽ": 619,
      "Ġè¿ĩ": 620,
      "çĪ±": 621,
      "Ġå½ĵ": 622,
      "Ġèĥ½": 623,
      "Ġä»İ": 624,
      "Ġå¥³": 625,
      "Ġåľ°": 626,
      "Ġæ¬¡": 627,
      "Ġè¢«": 628,
      "Ġä¸ª": 629,
      "Ġä½ł": 630,
      "Ġå·±": 631,
      "ĠæŃ£": 632,
      "Ġå¯¹": 633,
      "Ġåİ»": 634,
      "Ġèº«": 635,
      "Ġç¾İ": 636,
      "Ġä¸ĭ": 637,
      "Ġä¸ĸ": 638,
      "Ġå°ı": 639,
      "Ġåħ¶": 640,
      "Ġç§į": 641,
      "Ġè¿Ļ": 642,
      "Ġå¥½": 643,
      "ĠåĽ½": 644,
      "Ġå¿ĥ": 645,
      "Ġå®ĥ": 646,
      "Ġä¼ļ": 647,
      "Ġèĩª": 648,
      "Ġä½¿": 649,
      "Ġä½į": 650,
      "Ġåıĳ": 651,
      "ĠæĦı": 652,
      "Ġè¯´": 653,
      "Ġå°±": 654,
      "Ġå¾Ī": 655,
      "Ġå¼Ģ": 656,
      "Ġä¸º": 657,
      "Ġä¸Ģ": 658,
      "Ġä¸Ĭ": 659,
      "ĠæĹ¥": 660,
      "ĠèĢĮ": 661,
      "ĠæĪĲ": 662,
      "Ġå¹´": 663,
      "Ġä»¥": 664,
      "Ġä½ľ": 665,
      "ĠåĲį": 666,
      "Ġå¾Ĺ": 667,
      "Ġèµ·": 668,
      "Ġçİ°": 669,
      "Ġè¡Į": 670,
      "ĠéĤ£": 671,
      "Ġäºĭ": 672,
      "ĠåĲİ": 673,
      "ĠçĿĢ": 674,
      "ĠæīĢ": 675,
      "ĠæľĢ": 676,
      "ĠäºĨ": 677,
      "Ġä»¬": 678,
      "ĠæĿ¥": 679,
      "ĠçĶŁ": 680,
      "Ġéģĵ": 681,
      "Ġä¹Ī": 682,
      "Ġä¸¤": 683,
      "ãĢĲ": 684,
      "ĠåĬ¨": 685,
      "ãĢģ": 686,
      "âĢľ": 687,
      "âĢĺ": 688,
      "ãĢĬ": 689,
      "âĢĿ": 690,
      "Â£": 691,
      "âĢĻ": 692,
      "ãĢĳ": 693,
      "ãĢĤ": 694,
      "Â¥": 695,
      "ãĢĭ": 696,
      "Ġ><": 697,
      "Ġ>:": 698,
      "Ġ:<": 699,
      "Ġ>=": 700,
      "Ġ(<": 701,
      "Ġ!<": 702,
      "Ġ>)": 703,
      "Ġ>,": 704,
      "Ġ>;": 705,
      "Ġ>[": 706,
      "Ġ>]": 707,
      "Ġ>âĢĿ": 708,
      "ĠãĢĲ<": 709,
      "Ġ>!": 710,
      "Ġ!)": 711,
      "Ġ?,": 712,
      "Ġ\\<": 713,
      "Ġ=<": 714,
      "Ġ>#": 715,
      "Ġ>/": 716,
      "Ġ>{": 717,
      "Ġ>âĢĺ": 718,
      "Ġ::": 719,
      "ĠÂ£<": 720,
      "Ġ=:": 721,
      "Ġ>\"": 722,
      "Ġ>'": 723,
      "Ġ>.": 724,
      "Ġ>>": 725,
      "Ġ>@": 726,
      "Ġ>ãĢĬ": 727,
      "Ġ>ãĢĳ": 728,
      "Ġ,)": 729,
      "Ġ)<": 730,
      "Ġ?<": 731,
      "Ġ\"<": 732,
      "ä¸Ńæĸ¯": 733,
      "åľ°è¿Ļ": 734,
      "ä»¬æĹ¥": 735,
      "ĠåĦ¿åŃĲ": 736,
      "ĠåĽŀéĥ½": 737,
      "+<": 738,
      "Ġ>&": 739,
      "Ġ>(": 740,
      "Ġ>*": 741,
      "Ġ>?": 742,
      "Ġ>^": 743,
      "Ġ>}": 744,
      "Ġ>ãĢģ": 745,
      "Ġ<;": 746,
      "ĠUR": 747,
      "ĠPo": 748,
      "Ġ:-": 749,
      "Ġ:ãĢģ": 750,
      "Ġ:âĢĿ": 751,
      "Ġ;:": 752,
      "Ġ;<": 753,
      "Ġ,{": 754,
      "Ġ),": 755,
      "Ġ)@": 756,
      "Ġ(/": 757,
      "Ġ!,": 758,
      "Ġ!=": 759,
      "Ġ?!": 760,
      "Ġ?^": 761,
      "ĠJb": 762,
      "ĠYH": 763,
      "ĠMb": 764,
      "ĠãĢĲ)": 765,
      "ĠAk": 766,
      "ĠÂ£(": 767,
      "ĠLE": 768,
      "ĠZa": 769,
      "ĠFJ": 770,
      "ĠFX": 771,
      "Ġ}<": 772,
      "Ġ*<": 773,
      "Ġ@<": 774,
      "ĠâĢĻ$": 775,
      "Ġxl": 776,
      "ĠâĢĿ!": 777,
      "ĠRV": 778,
      "ĠâĢľ(": 779,
      "Ġ$)": 780,
      "Ġ+<": 781,
      "Ġ{)": 782,
      "Ġ#<": 783,
      "ĠzH": 784,
      "ĠãĢĬ?": 785,
      "Ġ^;": 786,
      "Ġ%âĢĺ": 787,
      "å¾Ĺæľī": 788,
      "è¿ĺåĴĮ": 789,
      "è¿ĺé«ĺ": 790,
      "ä¸Ńå·²": 791,
      "æīĭä¼ļ": 792,
      "æĦŁæľŁ": 793,
      "å¸¸éĤ£": 794,
      "æĿ¥æŃ¤": 795,
      "æĿ¥çĪ±": 796,
      "éĤ£ä¸ĭ": 797,
      "Ġä¸İçİ°": 798,
      "å¦Ĥåı¯": 799,
      "ä¸¤è¿Ľ": 800,
      "å¤§æĹ¶": 801,
      "åĲİåĲĮ": 802,
      "æĥ³åľ¨": 803,
      "æľīå½ĵ": 804,
      "ĠçļĦæĥħ": 805,
      "æĢ»çĶ¨": 806,
      "å¥½è¡Į": 807,
      "åĪ°éĩĮ": 808,
      "åİ»åĴĮ": 809,
      "å°ıæĪĲ": 810,
      "ĠçĦ¶éĹ´": 811,
      "Ġä½łè¡Į": 812,
      "Ġå°ıå·²": 813,
      "Ġä¼ļåĲĮ": 814,
      "Ġå¼ĢéĹ´": 815,
      "Ġä»¥å¤©": 816,
      "!<": 817,
      "&;": 818,
      ")(": 819,
      ")<": 820,
      "*Â£": 821,
      "+&": 822,
      ",<": 823,
      "?<": 824,
      "Jh": 825,
      "kK": 826,
      "{âĢĿ": 827,
      "Ġ>$": 828,
      "Ġ>%": 829,
      "Ġ>+": 830,
      "Ġ>-": 831,
      "Ġ>|": 832,
      "Ġ>âĤ¬": 833,
      "Ġ>âĢĻ": 834,
      "Ġ>Â¥": 835,
      "Ġ<+": 836,
      "Ġ<<": 837,
      "Ġ<âĢĺ": 838,
      "ĠSu": 839,
      "ĠPh": 840,
      "ĠEO": 841,
      "Ġ:;": 842,
      "Ġ:=": 843,
      "Ġ:?": 844,
      "Ġ:ãĢĬ": 845,
      "Ġ:âĢĻ": 846,
      "Ġ;&": 847,
      "Ġ;(": 848,
      "Ġ;,": 849,
      "Ġ,!": 850,
      "Ġ,%": 851,
      "Ġ,.": 852,
      "Ġ,?": 853,
      "Ġ,[": 854,
      "Ġ,âĤ¬": 855,
      "Ġ,Â£": 856,
      "Ġ)%": 857,
      "Ġ):": 858,
      "Ġ);": 859,
      "Ġ)?": 860,
      "Ġ)\\": 861,
      "Ġ)âĢľ": 862,
      "Ġ(,": 863,
      "Ġ(:": 864,
      "Ġ(Â£": 865,
      "Ġ!(": 866,
      "Ġ!?": 867,
      "Ġ!âĢĺ": 868,
      "Ġ!ãĢĬ": 869,
      "Ġ?\"": 870,
      "Ġ?.": 871,
      "Ġ?=": 872,
      "Ġ??": 873,
      "Ġ?âĤ¬": 874,
      "ĠdF": 875,
      "ĠdQ": 876,
      "Ġdx": 877,
      "ĠJI": 878,
      "ĠJr": 879,
      "ĠJv": 880,
      "ĠDf": 881,
      "ĠâĤ¬<": 882,
      "ĠMC": 883,
      "ĠMD": 884,
      "ĠMy": 885,
      "ĠãĢĲ+": 886,
      "ĠãĢĲâĢĿ": 887,
      "Ġ\\)": 888,
      "ĠTg": 889,
      "ĠãĢĳ;": 890,
      "ĠAi": 891,
      "ĠÂ£:": 892,
      "ĠsC": 893,
      "Ġsp": 894,
      "Ġ\";": 895,
      "ĠLs": 896,
      "Ġql": 897,
      "Ġqp": 898,
      "ĠFf": 899,
      "ĠlA": 900,
      "ĠlL": 901,
      "ĠlM": 902,
      "Ġ};": 903,
      "Ġ}Â£": 904,
      "Ġ.<": 905,
      "Ġra": 906,
      "ĠWr": 907,
      "Ġnc": 908,
      "Ġnf": 909,
      "Ġ*$": 910,
      "Ġ*/": 911,
      "Ġar": 912,
      "ĠãĢģ;": 913,
      "ĠãĢģ<": 914,
      "ĠãĢģ@": 915,
      "ĠãĢģ[": 916,
      "ĠãĢĤ<": 917,
      "ĠâĢĻ!": 918,
      "ĠâĢĻ.": 919,
      "ĠâĢĻ/": 920,
      "ĠpY": 921,
      "ĠKZ": 922,
      "ĠKm": 923,
      "ĠKv": 924,
      "ĠtM": 925,
      "ĠtX": 926,
      "Ġtf": 927,
      "Ġgh": 928,
      "ĠâĢĺ<": 929,
      "ĠâĢĺâĢĻ": 930,
      "ĠQA": 931,
      "ĠQn": 932,
      "ĠcE": 933,
      "ĠcQ": 934,
      "ĠXW": 935,
      "ĠXe": 936,
      "Ġun": 937,
      "Ġuq": 938,
      "Ġ16": 939,
      "Ġ19": 940,
      "Ġ/\"": 941,
      "Ġ/*": 942,
      "Ġ/:": 943,
      "Ġ/;": 944,
      "Ġ')": 945,
      "Ġ':": 946,
      "Ġ'@": 947,
      "Ġ'âĢĻ": 948,
      "Ġ'ãĢĭ": 949,
      "ĠâĢľ!": 950,
      "ĠâĢľ<": 951,
      "ĠâĢľ>": 952,
      "ĠâĢľ\\": 953,
      "ĠâĢľâĢľ": 954,
      "Ġky": 955,
      "ĠoW": 956,
      "Ġ&!": 957,
      "Ġ&,": 958,
      "Ġ&<": 959,
      "Ġ+)": 960,
      "Ġ+,": 961,
      "Ġ+ãĢģ": 962,
      "Ġ+ãĢĳ": 963,
      "Ġ](": 964,
      "Ġ]:": 965,
      "Ġ]^": 966,
      "ĠHh": 967,
      "ĠHu": 968,
      "Ġ#,": 969,
      "Ġ#/": 970,
      "Ġ-*": 971,
      "ĠmE": 972,
      "Ġmx": 973,
      "è¡Įåıª": 974,
      "è¡Įèµ·": 975,
      "Ġil": 976,
      "Ġis": 977,
      "ĠwB": 978,
      "ĠwV": 979,
      "Ġ[<": 980,
      "Ġyc": 981,
      "Ġyo": 982,
      "ĠÂ¥(": 983,
      "ĠÂ¥;": 984,
      "ä¹ĭäºĭ": 985,
      "ä¹ĭå¼Ģ": 986,
      "ç¾İæ³ķ": 987,
      "ç¾İèĢĮ": 988,
      "ç¾İé«ĺ": 989,
      "æĪĲæĺ¯": 990,
      "æĪĲéĩĮ": 991,
      "æĪĲæŃ£": 992,
      "åĴĮè¢«": 993,
      "Ġ%)": 994,
      "Ġ%<": 995,
      "Ġ%ãĢĤ": 996,
      "ä½įè¿ĩ": 997,
      "å¾Ĺè¿Ľ": 998,
      "æ²¡ä½į": 999,
      "æ²¡åĩº": 1000,
      "ĠãĢĭ.": 1001,
      "éĥ½çļĦ": 1002,
      "éĥ½å¤§": 1003,
      "è¿ĺåıĪ": 1004,
      "æ³ķå¦Ĥ": 1005,
      "åıªæĹł": 1006,
      "åıªäºİ": 1007,
      "æĸ¯èĥ½": 1008,
      "å®¶æ³ķ": 1009,
      "å®¶å·±": 1010,
      "å®¶äºĽ": 1011,
      "æīĭå¥¹": 1012,
      "æīĭè¿Ľ": 1013,
      "åľ°ç§į": 1014,
      "å°±ä½Ĩ": 1015,
      "æĺ¯æĺ¯": 1016,
      "æĺ¯ä»¥": 1017,
      "èµ·çľĭ": 1018,
      "èµ·çĪ±": 1019,
      "ä¸ĭæľŁ": 1020,
      "äºĭä¸ĭ": 1021,
      "äºĭå¼Ģ": 1022,
      "äºĭå®ĥ": 1023,
      "ä¼ļä½Ĩ": 1024,
      "ä¼ļåıĳ": 1025,
      "èº«æĹ¶": 1026,
      "éĩĮå¯¹": 1027,
      "éĩĮå¤§": 1028,
      "éĩĮåĪĨ": 1029,
      "ä¹Łä½Ĩ": 1030,
      "ä¹ŁçĦ¶": 1031,
      "æĦŁäºº": 1032,
      "æ¬¡ç¾İ": 1033,
      "çļĦå®¶": 1034,
      "çļĦæĬĬ": 1035,
      "ä»¥è¿ĩ": 1036,
      "èĢĮåĩº": 1037,
      "å¸¸ä¸İ": 1038,
      "å¸¸æĥħ": 1039,
      "è¿Ļä¹Ī": 1040,
      "è¿ĻåĦ¿": 1041,
      "å¥¹äºĭ": 1042,
      "äº²åİ»": 1043,
      "äº²çŁ¥": 1044,
      "æł·ä¸ª": 1045,
      "çĿĢä½į": 1046,
      "çĿĢå¯¹": 1047,
      "çĿĢæĹ¥": 1048,
      "çĿĢå¾Ī": 1049,
      "éĤ£æ¬¡": 1050,
      "äºĨçĶ¨": 1051,
      "åĲįæĹł": 1052,
      "å¥³ä¹ĭ": 1053,
      "å¥³äºĨ": 1054,
      "å¥³æĦı": 1055,
      "å¥³äºĽ": 1056,
      "å¥³å®ĥ": 1057,
      "æŃ£ä¸Ń": 1058,
      "æŃ£èĩª": 1059,
      "å·²ä»¬": 1060,
      "å·²åĩº": 1061,
      "å·²æľĢ": 1062,
      "å½ĵå¥³": 1063,
      "å¯¹èĢģ": 1064,
      "å¯¹å¹´": 1065,
      "Ġä¸İå¤´": 1066,
      "ç»ıåľ°": 1067,
      "åŃ¦ä¸Ń": 1068,
      "åŃ¦å·²": 1069,
      "è¯´åĬ¨": 1070,
      "å¦Ĥå¥³": 1071,
      "å¦Ĥä¸İ": 1072,
      "å¦Ĥä»ĸ": 1073,
      "ĠçŁ¥äºĭ": 1074,
      "ĠçŁ¥èº«": 1075,
      "ĠçŁ¥å·±": 1076,
      "ĠçŁ¥åĦ¿": 1077,
      "ä¸İç»Ļ": 1078,
      "åıĳéĿ¢": 1079,
      "æĪĳä¸ĭ": 1080,
      "æĪĳæĢ»": 1081,
      "ç»Ļå¤´": 1082,
      "æĬĬè¿ĩ": 1083,
      "æĬĬè¯´": 1084,
      "è¦ģåıª": 1085,
      "è¦ģæŃ¤": 1086,
      "ä¸įåĩº": 1087,
      "ä»Ģå°±": 1088,
      "æĹ¥ç¾İ": 1089,
      "æĹ¥éķ¿": 1090,
      "æĥħèĥ½": 1091,
      "è¢«èµ·": 1092,
      "è¢«ä»İ": 1093,
      "è¢«è¦ģ": 1094,
      "éĿ¢åĲĮ": 1095,
      "éĿ¢åĽŀ": 1096,
      "Ġæ²¡è¿ĩ": 1097,
      "ä½łå®¶": 1098,
      "ä½łä¹Ł": 1099,
      "ä½łåľ¨": 1100,
      "ä½łåı¯": 1101,
      "Ġä»Ģä¸į": 1102,
      "å·±æŃ¤": 1103,
      "Ġä¸įä½Ĩ": 1104,
      "Ġä¸įæĦŁ": 1105,
      "Ġä¸įæīĢ": 1106,
      "å¤§æŃ¤": 1107,
      "å¤§åīį": 1108,
      "åıĪåıª": 1109,
      "ä¹Īå¥¹": 1110,
      "ä¹Īä¸ª": 1111,
      "èĢģå¾Ĺ": 1112,
      "èĢģæīĢ": 1113,
      "æĹ¶æ²¡": 1114,
      "åĲİæĪĲ": 1115,
      "åĲİå¾Ī": 1116,
      "åĽ½ç¾İ": 1117,
      "åĩºå½ĵ": 1118,
      "åĩºé«ĺ": 1119,
      "åĩºäºİ": 1120,
      "çĦ¶å¼Ģ": 1121,
      "èĩªåĽ½": 1122,
      "èĩªç¬¬": 1123,
      "Ġæľīä½į": 1124,
      "Ġæľīéĥ½": 1125,
      "æĥ³å¹´": 1126,
      "åīįæīĢ": 1127,
      "ĠçļĦçļĦ": 1128,
      "Ġéĥ½ä»ĸ": 1129,
      "äººä¸º": 1130,
      "Ġä»ĸå°±": 1131,
      "Ġä»ĸä»İ": 1132,
      "ĠåŃĲä¸ĭ": 1133,
      "ĠåŃĲèĥ½": 1134,
      "å¥½è¿ĺ": 1135,
      "æĹłä¸º": 1136,
      "Ġä¹ĭå¾Ĺ": 1137,
      "Ġä¹ĭåľ°": 1138,
      "åĪ°æĹ¥": 1139,
      "åĪĨæĪĲ": 1140,
      "éķ¿äºĨ": 1141,
      "Ġçľĭå¤´": 1142,
      "äºĽåīį": 1143,
      "äºĽä¸Ģ": 1144,
      "Ġè¿ĺç¾İ": 1145,
      "Ġè¿ĺåĴĮ": 1146,
      "æľĢèĢģ": 1147,
      "æĸ¹ä½ł": 1148,
      "åľ¨è¡Į": 1149,
      "åľ¨çĶŁ": 1150,
      "åŃĲè¿ĩ": 1151,
      "çľĭçŁ¥": 1152,
      "éģĵåĪĨ": 1153,
      "éģĵä»ĸ": 1154,
      "ä¸Ģåĩº": 1155,
      "Ġå¤´æĪĲ": 1156,
      "Ġç»ıå½ĵ": 1157,
      "ĠæĦŁåİ»": 1158,
      "çİ°äº²": 1159,
      "çİ°å¥½": 1160,
      "çĶŁæľī": 1161,
      "çĶŁåĦ¿": 1162,
      "ä»ĸåĽ½": 1163,
      "Ġæ³ķæł·": 1164,
      "Ġæ³ķå¹´": 1165,
      "Ġæ³ķåħ¶": 1166,
      "ä½¿éķ¿": 1167,
      "åı¯æĦı": 1168,
      "å¿ĥåıª": 1169,
      "å¿ĥèµ·": 1170,
      "Ġéķ¿æĿ¥": 1171,
      "è¯Ŀæ²¡": 1172,
      "è¯Ŀä»¬": 1173,
      "Ġæĸ¹è¿Ļ": 1174,
      "Ġè¦ģåĽ½": 1175,
      "åħ¶å¥¹": 1176,
      "èĥ½èĢĮ": 1177,
      "èĥ½æĥħ": 1178,
      "Ġæł·å¤©": 1179,
      "ĠéĿ¢ç¬¬": 1180,
      "Ġåīįå¦Ĥ": 1181,
      "Ġé«ĺæľŁ": 1182,
      "Ġé«ĺä¼ļ": 1183,
      "Ġåı¯ä»¬": 1184,
      "Ġåı¯æĢ»": 1185,
      "Ġåı¯æĹł": 1186,
      "Ġåı¯è¿Ľ": 1187,
      "ĠåĽŀä½ł": 1188,
      "Ġæĥħä¹ĭ": 1189,
      "ĠåĴĮè¿Ļ": 1190,
      "ĠåĴĮå¤ļ": 1191,
      "Ġå¦Ĥå¯¹": 1192,
      "ĠæĢ»è¦ģ": 1193,
      "ĠæĢ»ä»¬": 1194,
      "Ġå¤§ä¹ĭ": 1195,
      "Ġå¤§æ²¡": 1196,
      "åĽŀå¤©": 1197,
      "åĽŀæŃ¤": 1198,
      "Ġå·²ä¸Ĭ": 1199,
      "Ġè¯ĿæĹ¥": 1200,
      "Ġè¯Ŀçİ°": 1201,
      "ç§įä¸ĸ": 1202,
      "ç§įèĢħ": 1203,
      "ĠçĪ±è¦ģ": 1204,
      "Ġäººä¼ļ": 1205,
      "Ġäººå½ĵ": 1206,
      "Ġè¿ĽåĽ½": 1207,
      "Ġè¿ĽæĦı": 1208,
      "ĠæŃ¤è¯Ŀ": 1209,
      "ç¬¬å¤ļ": 1210,
      "éĹ´ä¼ļ": 1211,
      "Ġäº²äºĽ": 1212,
      "Ġå¤©ä¸Ĭ": 1213,
      "Ġå¤©åħ¶": 1214,
      "ĠåıĪæĦŁ": 1215,
      "ĠåıĪæĬĬ": 1216,
      "Ġä¹ŁæĹ¥": 1217,
      "Ġä¹Łå®ĥ": 1218,
      "ĠæĬĬæŃ£": 1219,
      "ĠäºĽåıĪ": 1220,
      "Ġè¿ĩäºĭ": 1221,
      "çĪ±åıª": 1222,
      "çĪ±æĪĳ": 1223,
      "Ġå½ĵæ³ķ": 1224,
      "Ġèĥ½å¼Ģ": 1225,
      "Ġä»İè¡Į": 1226,
      "Ġæ¬¡ä½Ĩ": 1227,
      "Ġä½łå®¶": 1228,
      "Ġä½łèĢģ": 1229,
      "Ġå·±å®¶": 1230,
      "Ġå·±å¼Ģ": 1231,
      "ĠæŃ£çĿĢ": 1232,
      "Ġå¯¹å½ĵ": 1233,
      "Ġèº«åĲĮ": 1234,
      "Ġç¾İåħ¶": 1235,
      "Ġä¸ĸå¥½": 1236,
      "Ġå°ıçĶŁ": 1237,
      "Ġè¿ĻåĲĮ": 1238,
      "ĠåĽ½å¾Ī": 1239,
      "Ġå®ĥçĶ¨": 1240,
      "Ġèĩªæ¬¡": 1241,
      "Ġä½¿ä¹ĭ": 1242,
      "Ġä½¿åľ°": 1243,
      "Ġä½įå·±": 1244,
      "ĠæĦıå®¶": 1245,
      "Ġå°±åıª": 1246,
      "ĠèĢĮæĿ¥": 1247,
      "ĠèĢĮä»ĸ": 1248,
      "ĠèĢĮåĽŀ": 1249,
      "ĠæĪĲäºĭ": 1250,
      "ĠåĲįä»¥": 1251,
      "ĠåĲįæĥ³": 1252,
      "Ġå¾Ĺå¤©": 1253,
      "ĠéĤ£ä»¥": 1254,
      "ĠçĶŁå·²": 1255,
      "Ġä¹Īä»¥": 1256,
      "ãĢģâĢĻ": 1257,
      "Â¥<": 1258,
      "!-": 1259,
      "\"ãĢĲ": 1260,
      "#<": 1261,
      "#ãĢĬ": 1262,
      "$/": 1263,
      "$ãĢĤ": 1264,
      "%/": 1265,
      "%ãĢĬ": 1266,
      "'ãĢĤ": 1267,
      "'ãĢĭ": 1268,
      "(:": 1269,
      "(ãĢĲ": 1270,
      ");": 1271,
      "+:": 1272,
      ",âĢĿ": 1273,
      ",Â¥": 1274,
      "-<": 1275,
      ".^": 1276,
      "44": 1277,
      ":Â¥": 1278,
      ";<": 1279,
      "=.": 1280,
      "=<": 1281,
      "?âĢľ": 1282,
      "?âĢĻ": 1283,
      "@)": 1284,
      "CP": 1285,
      "FL": 1286,
      "Fn": 1287,
      "GC": 1288,
      "JE": 1289,
      "MU": 1290,
      "Mj": 1291,
      "Qo": 1292,
      "Sq": 1293,
      "Vm": 1294,
      "YM": 1295,
      "[<": 1296,
      "]âĢľ": 1297,
      "^[": 1298,
      "au": 1299,
      "bi": 1300,
      "cs": 1301,
      "jf": 1302,
      "sm": 1303,
      "|<": 1304,
      "Ġ>\\": 1305,
      "Ġ>ãĢĲ": 1306,
      "Ġ>âĢľ": 1307,
      "Ġ>Â£": 1308,
      "Ġ>ãĢĭ": 1309,
      "Ġ<#": 1310,
      "Ġ<Â¥": 1311,
      "ĠSm": 1312,
      "ĠSr": 1313,
      "ĠSv": 1314,
      "ĠSz": 1315,
      "ĠUA": 1316,
      "ĠUJ": 1317,
      "ĠUV": 1318,
      "ĠUZ": 1319,
      "ĠUc": 1320,
      "ĠUo": 1321,
      "ĠUr": 1322,
      "ĠUt": 1323,
      "ĠUx": 1324,
      "ĠPC": 1325,
      "ĠPM": 1326,
      "ĠPW": 1327,
      "ĠPX": 1328,
      "ĠPg": 1329,
      "ĠPq": 1330,
      "ĠEP": 1331,
      "ĠEW": 1332,
      "ĠEX": 1333,
      "ĠEk": 1334,
      "ĠEs": 1335,
      "ĠEz": 1336,
      "Ġ:!": 1337,
      "Ġ:%": 1338,
      "Ġ:&": 1339,
      "Ġ:(": 1340,
      "Ġ:*": 1341,
      "Ġ:.": 1342,
      "Ġ:/": 1343,
      "Ġ:@": 1344,
      "Ġ:[": 1345,
      "Ġ:Â£": 1346,
      "Ġ:ãĢĳ": 1347,
      "Ġ;!": 1348,
      "Ġ;+": 1349,
      "Ġ;;": 1350,
      "Ġ;=": 1351,
      "Ġ;>": 1352,
      "Ġ;@": 1353,
      "Ġ;ãĢģ": 1354,
      "Ġ;âĢĺ": 1355,
      "Ġ;Â£": 1356,
      "Ġ;ãĢĳ": 1357,
      "Ġ,$": 1358,
      "Ġ,+": 1359,
      "Ġ,:": 1360,
      "Ġ,<": 1361,
      "Ġ,|": 1362,
      "Ġ,}": 1363,
      "Ġ,ãĢĲ": 1364,
      "Ġ,âĢĺ": 1365,
      "Ġ)#": 1366,
      "Ġ).": 1367,
      "Ġ)/": 1368,
      "Ġ)]": 1369,
      "Ġ)âĤ¬": 1370,
      "Ġ)ãĢģ": 1371,
      "Ġ)âĢĺ": 1372,
      "Ġ)ãĢĤ": 1373,
      "Ġ(#": 1374,
      "Ġ(&": 1375,
      "Ġ()": 1376,
      "Ġ(;": 1377,
      "Ġ(=": 1378,
      "Ġ(\\": 1379,
      "Ġ({": 1380,
      "Ġ(âĢĺ": 1381,
      "Ġ(âĢĿ": 1382,
      "Ġ!/": 1383,
      "Ġ!:": 1384,
      "Ġ!;": 1385,
      "Ġ!>": 1386,
      "Ġ![": 1387,
      "Ġ!âĤ¬": 1388,
      "Ġ!ãĢĲ": 1389,
      "Ġ!âĢľ": 1390,
      "Ġ!ãĢĳ": 1391,
      "Ġ!Â¥": 1392,
      "Ġ!ãĢĭ": 1393,
      "Ġ?'": 1394,
      "Ġ?+": 1395,
      "Ġ?:": 1396,
      "Ġ?\\": 1397,
      "Ġ?]": 1398,
      "Ġ?âĢľ": 1399,
      "âĤ¬)": 1400,
      "ĠdH": 1401,
      "ĠdM": 1402,
      "ĠdY": 1403,
      "Ġdm": 1404,
      "Ġdr": 1405,
      "Ġdu": 1406,
      "Ġdw": 1407,
      "ĠJL": 1408,
      "ĠJO": 1409,
      "ĠJP": 1410,
      "ĠJU": 1411,
      "ĠJW": 1412,
      "ĠJX": 1413,
      "ĠJj": 1414,
      "ĠJo": 1415,
      "ĠJt": 1416,
      "ĠJw": 1417,
      "ĠJx": 1418,
      "ĠGE": 1419,
      "ĠGF": 1420,
      "ĠGR": 1421,
      "ĠGk": 1422,
      "ĠGq": 1423,
      "ĠDA": 1424,
      "ĠDC": 1425,
      "ĠDF": 1426,
      "ĠDG": 1427,
      "ĠDI": 1428,
      "ĠDK": 1429,
      "ĠDV": 1430,
      "ĠDa": 1431,
      "ĠDr": 1432,
      "ĠDv": 1433,
      "ĠYR": 1434,
      "ĠYU": 1435,
      "ĠYX": 1436,
      "ĠYZ": 1437,
      "ĠYb": 1438,
      "ĠYm": 1439,
      "ĠYo": 1440,
      "ĠYz": 1441,
      "ĠfG": 1442,
      "ĠfK": 1443,
      "ĠfL": 1444,
      "ĠfO": 1445,
      "ĠfY": 1446,
      "ĠfZ": 1447,
      "Ġfa": 1448,
      "Ġfb": 1449,
      "Ġff": 1450,
      "Ġfz": 1451,
      "ĠâĤ¬*": 1452,
      "ĠâĤ¬>": 1453,
      "ĠâĤ¬âĤ¬": 1454,
      "ĠâĤ¬âĢĻ": 1455,
      "ĠMB": 1456,
      "ĠMF": 1457,
      "ĠMI": 1458,
      "ĠMQ": 1459,
      "ĠMU": 1460,
      "ĠMV": 1461,
      "ĠMc": 1462,
      "ĠMg": 1463,
      "ĠãĢĲ!": 1464,
      "ĠãĢĲ-": 1465,
      "ĠãĢĲ;": 1466,
      "ĠãĢĲ\\": 1467,
      "ĠãĢĲ|": 1468,
      "ĠãĢĲâĢľ": 1469,
      "ĠãĢĲãĢĬ": 1470,
      "Ġ74": 1471,
      "ĠVD": 1472,
      "ĠVM": 1473,
      "ĠVe": 1474,
      "ĠVh": 1475,
      "ĠVj": 1476,
      "ĠVk": 1477,
      "ĠVt": 1478,
      "Ġ\\(": 1479,
      "Ġ\\,": 1480,
      "Ġ\\/": 1481,
      "Ġ\\:": 1482,
      "Ġ\\;": 1483,
      "Ġ\\ãĢģ": 1484,
      "Ġ\\âĢĿ": 1485,
      "ĠTA": 1486,
      "ĠTC": 1487,
      "ĠTI": 1488,
      "ĠTN": 1489,
      "ĠTP": 1490,
      "ĠTe": 1491,
      "ĠTh": 1492,
      "ĠãĢĳ<": 1493,
      "ĠãĢĳ>": 1494,
      "ĠãĢĳãĢĲ": 1495,
      "ĠãĢĳâĢĺ": 1496,
      "ĠãĢĳãĢĭ": 1497,
      "ĠAY": 1498,
      "ĠAr": 1499,
      "ĠÂ£?": 1500,
      "ĠÂ£^": 1501,
      "ĠÂ£ãĢĲ": 1502,
      "ĠÂ£ãĢģ": 1503,
      "ĠÂ£ãĢĤ": 1504,
      "Ġ=*": 1505,
      "Ġ=,": 1506,
      "Ġ=-": 1507,
      "Ġ=.": 1508,
      "Ġ=;": 1509,
      "Ġ==": 1510,
      "Ġ=|": 1511,
      "Ġ=ãĢģ": 1512,
      "ĠsG": 1513,
      "ĠsT": 1514,
      "Ġsd": 1515,
      "Ġsl": 1516,
      "Ġsq": 1517,
      "Ġss": 1518,
      "Ġsv": 1519,
      "Ġsw": 1520,
      "Ġ\"!": 1521,
      "Ġ\".": 1522,
      "Ġ\"[": 1523,
      "Ġ\"ãĢĲ": 1524,
      "ĠLN": 1525,
      "ĠLW": 1526,
      "ĠLZ": 1527,
      "ĠLk": 1528,
      "ĠLo": 1529,
      "ĠLp": 1530,
      "ĠLr": 1531,
      "ĠLt": 1532,
      "ĠZC": 1533,
      "ĠZO": 1534,
      "ĠZj": 1535,
      "ĠZo": 1536,
      "ĠqJ": 1537,
      "ĠqN": 1538,
      "ĠqQ": 1539,
      "ĠqT": 1540,
      "Ġqu": 1541,
      "ĠFC": 1542,
      "ĠFV": 1543,
      "ĠFW": 1544,
      "ĠlC": 1545,
      "ĠlI": 1546,
      "Ġld": 1547,
      "Ġlk": 1548,
      "Ġ}\"": 1549,
      "Ġ}#": 1550,
      "Ġ})": 1551,
      "Ġ}?": 1552,
      "Ġ}^": 1553,
      "Ġ}{": 1554,
      "Ġ}âĢĺ": 1555,
      "Ġ}ãĢĬ": 1556,
      "Ġ}ãĢĭ": 1557,
      "Ġ.%": 1558,
      "Ġ.(": 1559,
      "Ġ.:": 1560,
      "Ġ.=": 1561,
      "Ġ.>": 1562,
      "Ġ.^": 1563,
      "Ġ.ãĢĤ": 1564,
      "ĠrA": 1565,
      "ĠrR": 1566,
      "Ġrg": 1567,
      "Ġrv": 1568,
      "ĠWW": 1569,
      "ĠWZ": 1570,
      "ĠWc": 1571,
      "ĠWe": 1572,
      "ĠWk": 1573,
      "ĠWq": 1574,
      "ĠnP": 1575,
      "Ġna": 1576,
      "Ġnp": 1577,
      "Ġns": 1578,
      "Ġnu": 1579,
      "Ġnx": 1580,
      "Ġny": 1581,
      "Ġ*>": 1582,
      "Ġ*ãĢģ": 1583,
      "Ġ*âĢľ": 1584,
      "Ġ*ãĢĬ": 1585,
      "Ġ*ãĢĭ": 1586,
      "Ġ@!": 1587,
      "Ġ@*": 1588,
      "Ġ@,": 1589,
      "Ġ@âĤ¬": 1590,
      "Ġ@ãĢĲ": 1591,
      "Ġ@Â£": 1592,
      "ĠaD": 1593,
      "Ġag": 1594,
      "Ġap": 1595,
      "Ġav": 1596,
      "ĠjJ": 1597,
      "ĠjM": 1598,
      "Ġjp": 1599,
      "Ġjs": 1600,
      "Ġjv": 1601,
      "Ġjz": 1602,
      "ĠãĢģ(": 1603,
      "ĠãĢģ,": 1604,
      "ĠãĢģ]": 1605,
      "ĠãĢģ^": 1606,
      "ĠãĢģâĢĻ": 1607,
      "ĠãĢĤ(": 1608,
      "ĠãĢĤ)": 1609,
      "ĠãĢĤ+": 1610,
      "ĠâĢĻ+": 1611,
      "ĠâĢĻ,": 1612,
      "ĠâĢĻ:": 1613,
      "ĠâĢĻ\\": 1614,
      "ĠâĢĻãĢģ": 1615,
      "ĠâĢĻãĢĳ": 1616,
      "ĠpI": 1617,
      "ĠpM": 1618,
      "ĠpQ": 1619,
      "ĠpV": 1620,
      "Ġpc": 1621,
      "Ġpg": 1622,
      "Ġ56": 1623,
      "Ġ58": 1624,
      "ĠtB": 1625,
      "ĠtF": 1626,
      "ĠtT": 1627,
      "Ġta": 1628,
      "Ġte": 1629,
      "ĠgC": 1630,
      "ĠgF": 1631,
      "ĠgH": 1632,
      "ĠgT": 1633,
      "ĠgX": 1634,
      "Ġga": 1635,
      "Ġgl": 1636,
      "Ġgt": 1637,
      "Ġgz": 1638,
      "ĠxR": 1639,
      "ĠxS": 1640,
      "ĠxU": 1641,
      "ĠxV": 1642,
      "Ġxh": 1643,
      "Ġxt": 1644,
      "Ġxu": 1645,
      "Ġxz": 1646,
      "ĠâĢĺ;": 1647,
      "ĠâĢĺ}": 1648,
      "ĠâĢĺãĢĲ": 1649,
      "ĠâĢĺãĢģ": 1650,
      "ĠâĢĺÂ£": 1651,
      "ĠNM": 1652,
      "ĠNO": 1653,
      "ĠNP": 1654,
      "ĠNp": 1655,
      "ĠNv": 1656,
      "ĠNw": 1657,
      "ĠNx": 1658,
      "ĠNy": 1659,
      "ĠQP": 1660,
      "ĠQU": 1661,
      "ĠQZ": 1662,
      "ĠQa": 1663,
      "ĠQb": 1664,
      "ĠQp": 1665,
      "ĠcD": 1666,
      "ĠcL": 1667,
      "ĠcP": 1668,
      "Ġcs": 1669,
      "Ġcx": 1670,
      "ĠXF": 1671,
      "ĠXQ": 1672,
      "ĠXl": 1673,
      "ĠXp": 1674,
      "ĠXs": 1675,
      "ĠuA": 1676,
      "ĠuN": 1677,
      "ĠuT": 1678,
      "Ġum": 1679,
      "ĠvF": 1680,
      "ĠvM": 1681,
      "Ġva": 1682,
      "Ġvj": 1683,
      "Ġvk": 1684,
      "Ġvt": 1685,
      "ĠCK": 1686,
      "ĠCN": 1687,
      "ĠCP": 1688,
      "ĠCT": 1689,
      "ĠCX": 1690,
      "ĠCz": 1691,
      "ĠâĢĿ\"": 1692,
      "ĠâĢĿ%": 1693,
      "ĠâĢĿ(": 1694,
      "ĠâĢĿ.": 1695,
      "ĠâĢĿ<": 1696,
      "ĠâĢĿ@": 1697,
      "Ġ11": 1698,
      "ĠII": 1699,
      "ĠIR": 1700,
      "ĠIV": 1701,
      "ĠIY": 1702,
      "ĠIZ": 1703,
      "ĠIm": 1704,
      "ĠIx": 1705,
      "Ġ/!": 1706,
      "Ġ/)": 1707,
      "Ġ/.": 1708,
      "Ġ/<": 1709,
      "Ġ/?": 1710,
      "ĠRD": 1711,
      "ĠRW": 1712,
      "ĠRc": 1713,
      "ĠRe": 1714,
      "ĠRn": 1715,
      "ĠRs": 1716,
      "ĠRx": 1717,
      "ĠRy": 1718,
      "Ġ'(": 1719,
      "Ġ',": 1720,
      "ĠâĢľ\"": 1721,
      "ĠâĢľ;": 1722,
      "Ġkk": 1723,
      "Ġku": 1724,
      "Ġkv": 1725,
      "Ġop": 1726,
      "Ġor": 1727,
      "Ġ$\"": 1728,
      "Ġ$#": 1729,
      "Ġ$%": 1730,
      "Ġ$'": 1731,
      "Ġ$(": 1732,
      "Ġ$;": 1733,
      "Ġ$\\": 1734,
      "Ġ$}": 1735,
      "Ġ$âĢĺ": 1736,
      "Ġ$ãĢĬ": 1737,
      "Ġ&&": 1738,
      "Ġ&-": 1739,
      "Ġ&;": 1740,
      "Ġ&{": 1741,
      "Ġ&|": 1742,
      "Ġ&ãĢĬ": 1743,
      "Ġ&âĢĻ": 1744,
      "Ġ&+<": 1745,
      "Ġ+*": 1746,
      "Ġ+/": 1747,
      "Ġ]/": 1748,
      "Ġ]\\": 1749,
      "ĠbU": 1750,
      "Ġbg": 1751,
      "Ġby": 1752,
      "Ġ{,": 1753,
      "Ġ{.": 1754,
      "Ġ{ãĢĲ": 1755,
      "ĠHD": 1756,
      "ĠHH": 1757,
      "ĠHQ": 1758,
      "ĠHa": 1759,
      "ĠHe": 1760,
      "ĠHi": 1761,
      "ĠHv": 1762,
      "Ġ#(": 1763,
      "Ġ#ãĢĬ": 1764,
      "ĠzE": 1765,
      "ĠzF": 1766,
      "ĠzL": 1767,
      "Ġzb": 1768,
      "Ġzc": 1769,
      "Ġze": 1770,
      "Ġzq": 1771,
      "ĠãĢĬ\"": 1772,
      "ĠãĢĬ'": 1773,
      "ĠãĢĬ)": 1774,
      "ĠãĢĬ;": 1775,
      "ĠãĢĬ<": 1776,
      "ĠãĢĬãĢĤ": 1777,
      "Ġ-#": 1778,
      "Ġ-&": 1779,
      "Ġ-)": 1780,
      "Ġ-:": 1781,
      "Ġ-<": 1782,
      "Ġ-[": 1783,
      "Ġ-\\": 1784,
      "Ġ-{": 1785,
      "Ġ-âĤ¬": 1786,
      "Ġ-ãĢĲ": 1787,
      "Ġ-Â£": 1788,
      "Ġ82": 1789,
      "ĠmC": 1790,
      "ĠmR": 1791,
      "Ġmz": 1792,
      "è¡Įäºĭ": 1793,
      "è¡ĮèĢĮ": 1794,
      "è¡Įå¸¸": 1795,
      "è¡Įå¥¹": 1796,
      "è¡Įäº²": 1797,
      "è¡Įæł·": 1798,
      "è¡Įå½ĵ": 1799,
      "è¡Įä¸į": 1800,
      "è¡Įä¹Ī": 1801,
      "è¡ĮåĦ¿": 1802,
      "è¡Įéķ¿": 1803,
      "è¡Įæ´»": 1804,
      "ĠiL": 1805,
      "ĠiO": 1806,
      "Ġif": 1807,
      "Ġiz": 1808,
      "ĠwG": 1809,
      "Ġwl": 1810,
      "Ġwq": 1811,
      "ĠOO": 1812,
      "ĠOV": 1813,
      "ĠOZ": 1814,
      "ĠOh": 1815,
      "ĠOo": 1816,
      "Ġ[(": 1817,
      "Ġ[,": 1818,
      "Ġ[.": 1819,
      "Ġ[:": 1820,
      "Ġ[âĤ¬": 1821,
      "Ġ[âĢľ": 1822,
      "ĠBJ": 1823,
      "ĠBc": 1824,
      "ĠBd": 1825,
      "ĠBu": 1826,
      "ĠBv": 1827,
      "ĠBz": 1828,
      "ĠhB": 1829,
      "ĠhC": 1830,
      "ĠhO": 1831,
      "ĠhW": 1832,
      "Ġhp": 1833,
      "Ġhw": 1834,
      "Ġhz": 1835,
      "ĠyG": 1836,
      "ĠyK": 1837,
      "ĠyS": 1838,
      "Ġyf": 1839,
      "Ġys": 1840,
      "ĠÂ¥+": 1841,
      "ĠÂ¥:": 1842,
      "ĠÂ¥?": 1843,
      "ĠÂ¥]": 1844,
      "ĠÂ¥ãĢģ": 1845,
      "ĠÂ¥&;": 1846,
      "Ġ|&": 1847,
      "Ġ|âĤ¬": 1848,
      "Ġ|Â¥": 1849,
      "ĠeG": 1850,
      "ĠeI": 1851,
      "ĠeO": 1852,
      "Ġeg": 1853,
      "Ġen": 1854,
      "Ġ^\"": 1855,
      "Ġ^|": 1856,
      "ä¹ĭåıª": 1857,
      "ä¹ĭåľ°": 1858,
      "ä¹ĭèĢĮ": 1859,
      "ä¹ĭå¥¹": 1860,
      "ä¹ĭåĲį": 1861,
      "ä¹ĭç»Ļ": 1862,
      "ä¹ĭåĬ¨": 1863,
      "ä¹ĭéĿ¢": 1864,
      "ä¹ĭä¸ĸ": 1865,
      "ä¹ĭåĪĨ": 1866,
      "ä¹ĭäºĽ": 1867,
      "ä¹ĭéģĵ": 1868,
      "ä¹ĭäºİ": 1869,
      "å¤´æ³ķ": 1870,
      "å¤´ä»¥": 1871,
      "å¤´è¿ĩ": 1872,
      "å¤´ä¸İ": 1873,
      "å¤´æĢ»": 1874,
      "å¤´äºĽ": 1875,
      "å¤´éģĵ": 1876,
      "å¤´è¯Ŀ": 1877,
      "å¤´åĽł": 1878,
      "ç¾İå¾Ĺ": 1879,
      "ç¾İæĸ¯": 1880,
      "ç¾İéĩĮ": 1881,
      "ç¾İä¸¤": 1882,
      "ç¾İä»Ģ": 1883,
      "ç¾İæĹ¥": 1884,
      "ç¾İæŃ¤": 1885,
      "ç¾İèĢģ": 1886,
      "ç¾İå¾Ī": 1887,
      "ç¾İçĶ¨": 1888,
      "ç¾İçĪ±": 1889,
      "æĪĲå¥¹": 1890,
      "æĪĲåĲį": 1891,
      "æĪĲä¸ª": 1892,
      "æĪĲçĦ¶": 1893,
      "æĪĲåĪĨ": 1894,
      "æĪĲæĸ¹": 1895,
      "æĪĲå¾Ī": 1896,
      "æĪĲè¯Ŀ": 1897,
      "åĴĮå¤´": 1898,
      "åĴĮç¾İ": 1899,
      "åĴĮå°±": 1900,
      "åĴĮæĺ¯": 1901,
      "åĴĮéĩĮ": 1902,
      "åĴĮå½ĵ": 1903,
      "åĴĮå¦Ĥ": 1904,
      "åĴĮæĥħ": 1905,
      "åĴĮæĹ¶": 1906,
      "åĴĮåĽ½": 1907,
      "åĴĮçĦ¶": 1908,
      "åĴĮåīį": 1909,
      "åĴĮéģĵ": 1910,
      "Ġ%,": 1911,
      "Ġ%.": 1912,
      "Ġ%âĢľ": 1913,
      "Ġ%Â£": 1914,
      "ä½įä»¥": 1915,
      "ä½įä¸º": 1916,
      "ä½įä»İ": 1917,
      "ä½įå¼Ģ": 1918,
      "ä½įå¹´": 1919,
      "ä½įçŁ¥": 1920,
      "å¾Ĺèº«": 1921,
      "å¾ĹéĩĮ": 1922,
      "å¾Ĺæ¬¡": 1923,
      "å¾ĹéĤ£": 1924,
      "å¾ĹäºĨ": 1925,
      "å¾Ĺæĥħ": 1926,
      "å¾ĹåĬ¨": 1927,
      "å¾Ĺä½ł": 1928,
      "å¾Ĺå·±": 1929,
      "å¾Ĺä¸ĸ": 1930,
      "å¾ĹäºĽ": 1931,
      "æ²¡ä¹ĭ": 1932,
      "æ²¡éĥ½": 1933,
      "æ²¡æĺ¯": 1934,
      "æ²¡èº«": 1935,
      "æ²¡ä¹Ł": 1936,
      "æ²¡ä¸º": 1937,
      "æ²¡æŃ£": 1938,
      "æ²¡æĬĬ": 1939,
      "æ²¡æľĢ": 1940,
      "ĠãĢĭ)": 1941,
      "ĠãĢĭ>": 1942,
      "éĥ½åĴĮ": 1943,
      "éĥ½å®¶": 1944,
      "éĥ½åıĳ": 1945,
      "éĥ½ç»Ļ": 1946,
      "éĥ½åĬ¨": 1947,
      "éĥ½æĹł": 1948,
      "éĥ½åĪ°": 1949,
      "å¤©æĪĲ": 1950,
      "å¤©å¤©": 1951,
      "å¤©æľŁ": 1952,
      "å¤©æĪĳ": 1953,
      "å¤©ä½¿": 1954,
      "è¿ĺéĥ½": 1955,
      "è¿ĺæīĭ": 1956,
      "è¿ĺä¹Ł": 1957,
      "è¿ĺå¸¸": 1958,
      "è¿ĺéĤ£": 1959,
      "è¿ĺä»¬": 1960,
      "è¿ĺæĹ¥": 1961,
      "è¿ĺæĥħ": 1962,
      "è¿ĺæĢ»": 1963,
      "è¿ĺæĹł": 1964,
      "è¿ĺçľĭ": 1965,
      "æ³ķéĥ½": 1966,
      "æ³ķä¼ļ": 1967,
      "æ³ķèĢĮ": 1968,
      "æ³ķä»¬": 1969,
      "æ³ķåĬ¨": 1970,
      "æ³ķèĢħ": 1971,
      "æ³ķåĪĨ": 1972,
      "æ³ķæĸ¹": 1973,
      "æ³ķçĪ±": 1974,
      "ä¸Ńè¿ĺ": 1975,
      "ä¸Ńè¿ĩ": 1976,
      "ä¸Ńä¸º": 1977,
      "ä¸Ńä¸¤": 1978,
      "ä¸ŃæĹł": 1979,
      "ä¸Ńå¤ļ": 1980,
      "ä¸Ńä½ľ": 1981,
      "ä¸Ńå¹´": 1982,
      "ä¸Ńæ´»": 1983,
      "åıªå¤©": 1984,
      "åıªå°±": 1985,
      "åıªç»ı": 1986,
      "åıªä¸¤": 1987,
      "åıªéĿ¢": 1988,
      "åıªåĦ¿": 1989,
      "åıªéķ¿": 1990,
      "æľŁåĴĮ": 1991,
      "æľŁèµ·": 1992,
      "æľŁè¿ĩ": 1993,
      "æľŁå¯¹": 1994,
      "æľŁä¸ĸ": 1995,
      "æľŁæīĢ": 1996,
      "æľŁæľī": 1997,
      "æľŁäºº": 1998,
      "æľŁå¿ĥ": 1999,
      "æĸ¯è¿ĺ": 2000,
      "æĸ¯åľ°": 2001,
      "æĸ¯å¦Ĥ": 2002,
      "æĸ¯çĦ¶": 2003,
      "æĸ¯æĹł": 2004,
      "æĸ¯å¤ļ": 2005,
      "æĸ¯åŃĲ": 2006,
      "æĸ¯å¿ĥ": 2007,
      "æĸ¯é«ĺ": 2008,
      "å®¶æ²¡": 2009,
      "å®¶éĥ½": 2010,
      "å®¶å¥¹": 2011,
      "å®¶éĿ¢": 2012,
      "å®¶å¥½": 2013,
      "å®¶æĹł": 2014,
      "å®¶çĶŁ": 2015,
      "ä½Ĩä¸¤": 2016,
      "ä½Ĩä»¬": 2017,
      "ä½ĨåĬ¨": 2018,
      "ä½Ĩä¸ª": 2019,
      "ä½ĨçĦ¶": 2020,
      "ä½Ĩå®ĥ": 2021,
      "ä½Ĩå°ı": 2022,
      "æīĭæĸ¯": 2023,
      "æīĭæīĭ": 2024,
      "æīĭå·²": 2025,
      "æīĭç»Ļ": 2026,
      "åľ°æ³ķ": 2027,
      "åľ°æľī": 2028,
      "åľ°æĢ»": 2029,
      "åľ°æĹł": 2030,
      "åľ°çĶŁ": 2031,
      "åľ°ä½¿": 2032,
      "åľ°çŁ¥": 2033,
      "å°±è¿ĺ": 2034,
      "å°±æ³ķ": 2035,
      "å°±ä¸į": 2036,
      "å°±å¤§": 2037,
      "å°±å°ı": 2038,
      "å°±ç¬¬": 2039,
      "æĺ¯æ³ķ": 2040,
      "æĺ¯æ¬¡": 2041,
      "æĺ¯æŃ£": 2042,
      "æĺ¯ä¸¤": 2043,
      "æĺ¯ä¸İ": 2044,
      "æĺ¯æĹ¶": 2045,
      "æĺ¯èĩª": 2046,
      "æĺ¯åĦ¿": 2047,
      "æĺ¯åľ¨": 2048,
      "æĺ¯çİ°": 2049,
      "èµ·ä½į": 2050,
      "èµ·è¿ĩ": 2051,
      "èµ·æŃ£": 2052,
      "èµ·è¢«": 2053,
      "èµ·èĢģ": 2054,
      "èµ·åĩº": 2055,
      "èµ·çĦ¶": 2056,
      "èµ·æīĢ": 2057,
      "èµ·æľĢ": 2058,
      "ä¸ĭæ¬¡": 2059,
      "ä¸ĭäº²": 2060,
      "ä¸ĭäºĨ": 2061,
      "ä¸ĭä¸¤": 2062,
      "ä¸ĭæĹł": 2063,
      "ä¸ĭçĪ±": 2064,
      "äºĭæĦŁ": 2065,
      "äºĭçļĦ": 2066,
      "äºĭå¦Ĥ": 2067,
      "äºĭæĥħ": 2068,
      "äºĭåĦ¿": 2069,
      "äºĭæĢ»": 2070,
      "äºĭåĪĨ": 2071,
      "äºĭä»ĸ": 2072,
      "ä¼ļå°±": 2073,
      "ä¼ļèĢĮ": 2074,
      "ä¼ļå¥¹": 2075,
      "ä¼ļå½ĵ": 2076,
      "ä¼ļä¸¤": 2077,
      "ä¼ļéĿ¢": 2078,
      "ä¼ļæĥ³": 2079,
      "ä¼ļæĦı": 2080,
      "ä¼ļåīį": 2081,
      "ä¼ļé«ĺ": 2082,
      "èº«äºĭ": 2083,
      "èº«å½ĵ": 2084,
      "èº«åŃ¦": 2085,
      "èº«åıĪ": 2086,
      "èº«å¿ĥ": 2087,
      "éĩĮæĪĲ": 2088,
      "éĩĮä¸º": 2089,
      "éĩĮæĹ¥": 2090,
      "éĩĮæĥħ": 2091,
      "éĩĮåĬ¨": 2092,
      "éĩĮä¸ĸ": 2093,
      "éĩĮä½ľ": 2094,
      "éĩĮå°ı": 2095,
      "ä¹Łæ²¡": 2096,
      "ä¹Łè¿ĺ": 2097,
      "ä¹ŁæĦŁ": 2098,
      "ä¹Łä»¥": 2099,
      "ä¹ŁèĢĮ": 2100,
      "ä¹Łå·±": 2101,
      "ä¹Łå¤§": 2102,
      "ä¹Łéķ¿": 2103,
      "ä¹Łè¯Ŀ": 2104,
      "ä¹ŁåĽł": 2105,
      "æĦŁå¥³": 2106,
      "æĦŁéģĵ": 2107,
      "æĦŁåĽŀ": 2108,
      "æ¬¡å¤´": 2109,
      "æ¬¡ä¸İ": 2110,
      "æ¬¡åıĳ": 2111,
      "æ¬¡ä½ł": 2112,
      "æ¬¡èĢģ": 2113,
      "æ¬¡åĩº": 2114,
      "æ¬¡éģĵ": 2115,
      "æ¬¡çİ°": 2116,
      "æ¬¡ä»ĸ": 2117,
      "çļĦä¹ĭ": 2118,
      "çļĦä½į": 2119,
      "çļĦè¿Ļ": 2120,
      "çļĦäº²": 2121,
      "çļĦå½ĵ": 2122,
      "çļĦçĦ¶": 2123,
      "ä»¥è¿ĺ": 2124,
      "ä»¥å°±": 2125,
      "ä»¥çĿĢ": 2126,
      "ä»¥ç»ı": 2127,
      "ä»¥å¤§": 2128,
      "ä»¥çŁ¥": 2129,
      "è¿ĩæ³ķ": 2130,
      "è¿ĩéĤ£": 2131,
      "è¿ĩä»Ģ": 2132,
      "è¿ĩæľī": 2133,
      "è¿ĩåĦ¿": 2134,
      "è¿ĩç¬¬": 2135,
      "èĢĮæĪĲ": 2136,
      "èĢĮå¤©": 2137,
      "èĢĮæĸ¯": 2138,
      "èĢĮåľ°": 2139,
      "èĢĮä¸Ģ": 2140,
      "èĢĮå°ı": 2141,
      "èĢĮåĽł": 2142,
      "èĢĮçĪ±": 2143,
      "å¸¸è¡Į": 2144,
      "å¸¸ä¸º": 2145,
      "å¸¸éķ¿": 2146,
      "å¸¸æĸ¹": 2147,
      "å¸¸ä½ľ": 2148,
      "å¸¸åİ»": 2149,
      "å¸¸å¹´": 2150,
      "å¸¸å®ĥ": 2151,
      "å¸¸ç§į": 2152,
      "è¿Ļå¾Ĺ": 2153,
      "è¿ĻçļĦ": 2154,
      "è¿Ļå¥³": 2155,
      "è¿ĻèĢģ": 2156,
      "è¿ĻåĽ½": 2157,
      "è¿Ļå¿ĥ": 2158,
      "æĿ¥å°±": 2159,
      "æĿ¥ä¹Ł": 2160,
      "æĿ¥æĪĳ": 2161,
      "æĿ¥ç»Ļ": 2162,
      "æĿ¥ä»Ģ": 2163,
      "æĿ¥èĢģ": 2164,
      "æĿ¥çĦ¶": 2165,
      "æĿ¥åĪ°": 2166,
      "æĿ¥å¾Ī": 2167,
      "ä¸ºè¡Į": 2168,
      "ä¸ºçļĦ": 2169,
      "ä¸ºéĤ£": 2170,
      "ä¸ºä¸İ": 2171,
      "ä¸ºè¦ģ": 2172,
      "ä¸ºæĹ¥": 2173,
      "ä¸ºåĬ¨": 2174,
      "ä¸ºäºº": 2175,
      "ä¸ºåĲĮ": 2176,
      "å¥¹å¤©": 2177,
      "å¥¹èº«": 2178,
      "å¥¹çļĦ": 2179,
      "å¥¹ä¸ĸ": 2180,
      "å¥¹å¤§": 2181,
      "å¥¹äºº": 2182,
      "å¥¹ç¬¬": 2183,
      "äº²æ²¡": 2184,
      "äº²æ¬¡": 2185,
      "äº²è¯´": 2186,
      "äº²ä¹Ī": 2187,
      "äº²çĪ±": 2188,
      "æł·ä¸Ń": 2189,
      "æł·æľŁ": 2190,
      "æł·æĺ¯": 2191,
      "æł·èĢĮ": 2192,
      "æł·ä»İ": 2193,
      "æł·æŃ£": 2194,
      "æł·å½ĵ": 2195,
      "æł·ä¹Ī": 2196,
      "æł·èĩª": 2197,
      "æł·ä½¿": 2198,
      "çĿĢä¹Ł": 2199,
      "çĿĢæĬĬ": 2200,
      "çĿĢä¸į": 2201,
      "çĿĢè¢«": 2202,
      "çĿĢçŁ¥": 2203,
      "éĤ£è¡Į": 2204,
      "éĤ£æĪĲ": 2205,
      "éĤ£éĩĮ": 2206,
      "éĤ£å¥³": 2207,
      "éĤ£å¼Ģ": 2208,
      "éĤ£ä»¬": 2209,
      "éĤ£åĬ¨": 2210,
      "éĤ£åıĪ": 2211,
      "éĤ£æīĢ": 2212,
      "éĤ£åĲĮ": 2213,
      "éĤ£åĽŀ": 2214,
      "äºĨç¾İ": 2215,
      "äºĨåĴĮ": 2216,
      "äºĨæ²¡": 2217,
      "äºĨæľŁ": 2218,
      "äºĨä»İ": 2219,
      "äºĨæŃ£": 2220,
      "äºĨåľ¨": 2221,
      "äºĨéģĵ": 2222,
      "äºĨä½¿": 2223,
      "åĲįå®¶": 2224,
      "åĲįå°±": 2225,
      "åĲįå¥¹": 2226,
      "åĲįä»Ģ": 2227,
      "åĲįæĸ¹": 2228,
      "åĲįä¸Ģ": 2229,
      "åĲįçİ°": 2230,
      "åĲįè¿Ľ": 2231,
      "åĲįä½¿": 2232,
      "ä»İä¸Ń": 2233,
      "ä»İæł·": 2234,
      "ä»İåĩº": 2235,
      "ä»İæĦı": 2236,
      "å¥³æĿ¥": 2237,
      "å¥³æł·": 2238,
      "å¥³æŃ£": 2239,
      "å¥³äºº": 2240,
      "å¥³åĪ°": 2241,
      "å¥³æľĢ": 2242,
      "å¥³åħ¶": 2243,
      "æŃ£å®¶": 2244,
      "æŃ£ä»Ģ": 2245,
      "æŃ£åĲİ": 2246,
      "å·²éĥ½": 2247,
      "å·²å½ĵ": 2248,
      "å·²èĢģ": 2249,
      "å½ĵä¹ĭ": 2250,
      "å½ĵä¸º": 2251,
      "å½ĵå¤ļ": 2252,
      "å½ĵä½¿": 2253,
      "å½ĵé«ĺ": 2254,
      "å¯¹ä½į": 2255,
      "å¯¹ç»Ļ": 2256,
      "å¯¹åĪĨ": 2257,
      "å¯¹äºĽ": 2258,
      "Ġå®¶æ³ķ": 2259,
      "Ġå®¶ä¸Ń": 2260,
      "Ġå®¶è¿ĩ": 2261,
      "Ġå®¶ä¸º": 2262,
      "Ġå®¶äº²": 2263,
      "Ġå®¶æīĢ": 2264,
      "Ġå®¶äºº": 2265,
      "Ġä¸İå¤©": 2266,
      "Ġä¸İæĸ¯": 2267,
      "Ġä¸İå¸¸": 2268,
      "Ġä¸İæĿ¥": 2269,
      "Ġä¸İå½ĵ": 2270,
      "Ġä¸İä½ł": 2271,
      "Ġä¸İæĥ³": 2272,
      "Ġä¸İçŁ¥": 2273,
      "Ġä¸İåĽł": 2274,
      "Ġä¸İç¬¬": 2275,
      "ç»ıäº²": 2276,
      "ç»ıè¯´": 2277,
      "ç»ıä¸į": 2278,
      "åŃ¦æīĭ": 2279,
      "åŃ¦åĲį": 2280,
      "åŃ¦ä»Ģ": 2281,
      "åŃ¦æīĢ": 2282,
      "åŃ¦åīį": 2283,
      "åŃ¦åĪ°": 2284,
      "è¯´åľ°": 2285,
      "è¯´ä¸º": 2286,
      "è¯´åŃ¦": 2287,
      "è¯´è¦ģ": 2288,
      "è¯´å¤§": 2289,
      "è¯´ä½ľ": 2290,
      "è¯´è¿Ľ": 2291,
      "è¯´èĥ½": 2292,
      "è¯´é«ĺ": 2293,
      "å¦ĤåĴĮ": 2294,
      "å¦Ĥä¸Ń": 2295,
      "å¦Ĥä½Ĩ": 2296,
      "å¦Ĥç»ı": 2297,
      "å¦ĤæŃ¤": 2298,
      "å¦ĤåĬ¨": 2299,
      "å¦ĤåĽ½": 2300,
      "ĠçŁ¥åıª": 2301,
      "ĠçŁ¥åŃ¦": 2302,
      "ĠçŁ¥å¤§": 2303,
      "ĠçŁ¥åıĪ": 2304,
      "ĠçŁ¥äºĽ": 2305,
      "ĠçŁ¥å¿ĥ": 2306,
      "ĠçŁ¥æ´»": 2307,
      "ĠçŁ¥åĽł": 2308,
      "ĠçŁ¥éĹ´": 2309,
      "ä¸¤æĪĲ": 2310,
      "ä¸¤èĢĮ": 2311,
      "ä¸¤äºĨ": 2312,
      "ä¸¤ä¸į": 2313,
      "ä¸¤åĬ¨": 2314,
      "ä¸¤ä¸ĸ": 2315,
      "ä¸¤æĦı": 2316,
      "ä¸¤äºº": 2317,
      "ä¸¤é«ĺ": 2318,
      "ä¸İå¤´": 2319,
      "ä¸İè¿Ļ": 2320,
      "ä¸İä»İ": 2321,
      "ä¸İå·²": 2322,
      "åıĳä½į": 2323,
      "åıĳè¿ĺ": 2324,
      "åıĳåıª": 2325,
      "åıĳä½Ĩ": 2326,
      "åıĳèº«": 2327,
      "åıĳäºº": 2328,
      "åıĳçĶ¨": 2329,
      "æĪĳæľŁ": 2330,
      "æĪĳä½Ĩ": 2331,
      "ç»Ļèµ·": 2332,
      "ç»Ļèĩª": 2333,
      "ç»Ļæľī": 2334,
      "ç»Ļä¸Ģ": 2335,
      "ç»Ļä½¿": 2336,
      "ç»Ļå¿ĥ": 2337,
      "å¼Ģè¯´": 2338,
      "å¼Ģä¸ĸ": 2339,
      "å¼Ģæľī": 2340,
      "æĬĬç¾İ": 2341,
      "æĬĬæīĭ": 2342,
      "æĬĬåľ°": 2343,
      "æĬĬæĺ¯": 2344,
      "æĬĬä¸İ": 2345,
      "æĬĬå¹´": 2346,
      "æĬĬåĲĮ": 2347,
      "è¦ģéĩĮ": 2348,
      "è¦ģä»¥": 2349,
      "è¦ģåĲį": 2350,
      "è¦ģåŃ¦": 2351,
      "è¦ģä¸¤": 2352,
      "è¦ģå¼Ģ": 2353,
      "è¦ģæĸ¹": 2354,
      "è¦ģåĽŀ": 2355,
      "ä¸įä¸İ": 2356,
      "ä¸įä¸ĸ": 2357,
      "ä¸įçĦ¶": 2358,
      "ä¸įæĢ»": 2359,
      "ä¸įåĪĨ": 2360,
      "ä¸įä½¿": 2361,
      "ä»¬è¿ĺ": 2362,
      "ä»¬å¦Ĥ": 2363,
      "ä»¬æĥħ": 2364,
      "ä»¬ä¹Ī": 2365,
      "ä»¬å¾Ī": 2366,
      "ä»Ģä½Ĩ": 2367,
      "ä»Ģå¸¸": 2368,
      "ä»ĢåĲį": 2369,
      "ä»ĢæĹł": 2370,
      "ä»Ģåı¯": 2371,
      "ä»Ģåħ¶": 2372,
      "ä»Ģç§į": 2373,
      "æĹ¥æ³ķ": 2374,
      "æĹ¥èº«": 2375,
      "æĹ¥çľĭ": 2376,
      "æŃ¤å¾Ĺ": 2377,
      "æŃ¤æ³ķ": 2378,
      "æŃ¤åĲį": 2379,
      "æŃ¤å·±": 2380,
      "æŃ¤åıĪ": 2381,
      "æŃ¤åīį": 2382,
      "æŃ¤ä¸Ģ": 2383,
      "æŃ¤ä½¿": 2384,
      "æŃ¤éĹ´": 2385,
      "æĥħå¤´": 2386,
      "æĥħä¸º": 2387,
      "æĥħåĦ¿": 2388,
      "æĥħåĽŀ": 2389,
      "æĥħåĽł": 2390,
      "åĬ¨ä»¥": 2391,
      "åĬ¨èĩª": 2392,
      "åĬ¨éķ¿": 2393,
      "åĬ¨éģĵ": 2394,
      "è¢«æĿ¥": 2395,
      "è¢«åĲį": 2396,
      "è¢«å½ĵ": 2397,
      "è¢«èĩª": 2398,
      "è¢«æīĢ": 2399,
      "è¢«æľī": 2400,
      "è¢«ä½ľ": 2401,
      "è¢«ä»ĸ": 2402,
      "éĿ¢æĪĲ": 2403,
      "éĿ¢éĥ½": 2404,
      "éĿ¢çľĭ": 2405,
      "éĿ¢éģĵ": 2406,
      "Ġæ²¡å°±": 2407,
      "Ġæ²¡æĺ¯": 2408,
      "Ġæ²¡æĥħ": 2409,
      "Ġæ²¡åĬ¨": 2410,
      "Ġæ²¡è¿Ľ": 2411,
      "Ġæ²¡ç§į": 2412,
      "Ġæ²¡äºİ": 2413,
      "ä¸ªä¸¤": 2414,
      "ä¸ªåīį": 2415,
      "ä¸ªæĢ»": 2416,
      "ä¸ªçľĭ": 2417,
      "ä¸ªåĽŀ": 2418,
      "ä½łä¹ĭ": 2419,
      "ä½łå¥½": 2420,
      "Ġä»Ģå¾Ĺ": 2421,
      "Ġä»Ģæ²¡": 2422,
      "Ġä»Ģåıª": 2423,
      "Ġä»Ģäºĭ": 2424,
      "Ġä»ĢèĢĮ": 2425,
      "Ġä»Ģç»ı": 2426,
      "Ġä»Ģä¹Ī": 2427,
      "Ġä»Ģåħ¶": 2428,
      "Ġä»Ģå°ı": 2429,
      "Ġä»Ģæ´»": 2430,
      "å·±æ²¡": 2431,
      "å·±å¤©": 2432,
      "å·±æĸ¯": 2433,
      "å·±ä»¬": 2434,
      "å·±çĶŁ": 2435,
      "å·±ä»ĸ": 2436,
      "å·±å¿ĥ": 2437,
      "å·±ç§į": 2438,
      "ä¸ĸä»¥": 2439,
      "ä¸ĸæĪĳ": 2440,
      "ä¸ĸä¹Ī": 2441,
      "ä¸ĸæĦı": 2442,
      "ä¸ĸäºĽ": 2443,
      "ä¸ĸæľĢ": 2444,
      "ä¸ĸå¹´": 2445,
      "Ġä¸įåıª": 2446,
      "Ġä¸įä¼ļ": 2447,
      "Ġä¸įäºĨ": 2448,
      "Ġä¸įæĦı": 2449,
      "Ġä¸įæĸ¹": 2450,
      "Ġä¸įèĥ½": 2451,
      "å¤§è¡Į": 2452,
      "å¤§çĦ¶": 2453,
      "å¤§å¿ĥ": 2454,
      "å¤§é«ĺ": 2455,
      "åıĪæĹ¶": 2456,
      "åıĪåĽł": 2457,
      "ä¹Īæł·": 2458,
      "ä¹ĪåĲİ": 2459,
      "ä¹ĪåĪ°": 2460,
      "ä¹Īçľĭ": 2461,
      "ä¹Īè¿Ľ": 2462,
      "ä¹ĪçĶ¨": 2463,
      "èĢģæľŁ": 2464,
      "èĢģå°±": 2465,
      "èĢģåĲį": 2466,
      "èĢģä¸į": 2467,
      "èĢģåħ¶": 2468,
      "æĹ¶æ³ķ": 2469,
      "æĹ¶èµ·": 2470,
      "æĹ¶çļĦ": 2471,
      "æĹ¶å¸¸": 2472,
      "æĹ¶åĲį": 2473,
      "æĹ¶ä¸į": 2474,
      "åĲİå¤´": 2475,
      "åĲİæĺ¯": 2476,
      "åĲİäºĭ": 2477,
      "åĲİèĢĮ": 2478,
      "åĲİä¸¤": 2479,
      "åĲİæĪĳ": 2480,
      "åĲİåĽ½": 2481,
      "åĲİèĢħ": 2482,
      "åĲİå¤ļ": 2483,
      "åĲİå¹´": 2484,
      "åĽ½åľ°": 2485,
      "åĽ½ä¸ĭ": 2486,
      "åĽ½çĿĢ": 2487,
      "åĽ½åĲİ": 2488,
      "åĽ½åĦ¿": 2489,
      "ĠåĲĮä¸Ń": 2490,
      "ĠåĲĮæľŁ": 2491,
      "ĠåĲĮæĿ¥": 2492,
      "ĠåĲĮä¸º": 2493,
      "ĠåĲĮæł·": 2494,
      "ĠåĲĮçĿĢ": 2495,
      "ĠåĲĮæŃ£": 2496,
      "ĠåĲĮå¼Ģ": 2497,
      "ĠåĲĮäºĽ": 2498,
      "ĠåĲĮçľĭ": 2499,
      "ĠåĲĮå¾Ī": 2500,
      "åĩºçļĦ": 2501,
      "åĩºç»Ļ": 2502,
      "åĩºä½ł": 2503,
      "åĩºæĹ¶": 2504,
      "åĩºå¤ļ": 2505,
      "åĩºåĽŀ": 2506,
      "çĦ¶è¿ĩ": 2507,
      "çĦ¶æľī": 2508,
      "çĦ¶å°ı": 2509,
      "çĦ¶çĪ±": 2510,
      "èĩªè¡Į": 2511,
      "èĩªåĴĮ": 2512,
      "èĩªå¾Ĺ": 2513,
      "èĩªå¥¹": 2514,
      "èĩªåŃĲ": 2515,
      "ĠæĹłä¸ĸ": 2516,
      "ĠæĹłåĲİ": 2517,
      "ĠæĹłåŃĲ": 2518,
      "ĠæĹłçİ°": 2519,
      "ĠæĹłä¸Ĭ": 2520,
      "Ġæľīè¡Į": 2521,
      "ĠæľīæľŁ": 2522,
      "Ġæľīå¯¹": 2523,
      "Ġæľīç»Ļ": 2524,
      "Ġæľīæľī": 2525,
      "Ġæľīå®ĥ": 2526,
      "ĠæľīçĪ±": 2527,
      "æīĢå¥½": 2528,
      "æīĢä¸Ģ": 2529,
      "æĥ³å½ĵ": 2530,
      "æĥ³ä¸ĸ": 2531,
      "æĥ³åĩº": 2532,
      "æĥ³äºº": 2533,
      "æĥ³ä¸Ģ": 2534,
      "æĥ³é«ĺ": 2535,
      "æľīä¸ĭ": 2536,
      "æľīè¢«": 2537,
      "ĠèĢħè¿ĺ": 2538,
      "ĠèĢħæĸ¯": 2539,
      "ĠèĢħæĺ¯": 2540,
      "ĠèĢħäºĨ": 2541,
      "ĠèĢħä¸İ": 2542,
      "ĠèĢħéĿ¢": 2543,
      "ĠèĢħèĢħ": 2544,
      "æĦıä¸ĭ": 2545,
      "æĦıæĦŁ": 2546,
      "æĦıçļĦ": 2547,
      "æĦıèĢĮ": 2548,
      "æĦıçŁ¥": 2549,
      "æĦıç§į": 2550,
      "åīįè¿ĺ": 2551,
      "åīįå°±": 2552,
      "åīįèµ·": 2553,
      "åīįå¸¸": 2554,
      "åīįä»İ": 2555,
      "åīįåŃĲ": 2556,
      "åīįèĥ½": 2557,
      "åīįæ´»": 2558,
      "åīįäºİ": 2559,
      "ĠçļĦå½ĵ": 2560,
      "ĠçļĦç»ı": 2561,
      "ĠçļĦè¯´": 2562,
      "ĠçļĦæĢ»": 2563,
      "ĠçļĦèĥ½": 2564,
      "ĠçļĦç¬¬": 2565,
      "Ġéĥ½ä¹ĭ": 2566,
      "Ġéĥ½å¦Ĥ": 2567,
      "Ġéĥ½éķ¿": 2568,
      "Ġéĥ½è¿Ľ": 2569,
      "Ġéĥ½åĽł": 2570,
      "äººå¤©": 2571,
      "äººèµ·": 2572,
      "äººæŃ¤": 2573,
      "äººå¹´": 2574,
      "Ġä»ĸä½į": 2575,
      "Ġä»ĸå¤©": 2576,
      "Ġä»ĸæľŁ": 2577,
      "Ġä»ĸæīĭ": 2578,
      "Ġä»ĸèµ·": 2579,
      "Ġä»ĸæł·": 2580,
      "Ġä»ĸçĿĢ": 2581,
      "Ġä»ĸæŃ¤": 2582,
      "Ġä»ĸåĽ½": 2583,
      "èĢħä¹ĭ": 2584,
      "èĢħæ³ķ": 2585,
      "èĢħæĸ¯": 2586,
      "èĢħä¸į": 2587,
      "èĢħéĿ¢": 2588,
      "èĢħä¸ĸ": 2589,
      "èĢħçİ°": 2590,
      "ĠåŃĲçļĦ": 2591,
      "ĠåŃĲäºº": 2592,
      "ĠåŃĲç§į": 2593,
      "åĦ¿å¤ļ": 2594,
      "åĦ¿åİ»": 2595,
      "æĢ»ä¸ª": 2596,
      "Ġæĺ¯éĥ½": 2597,
      "Ġæĺ¯æĹ¥": 2598,
      "Ġæĺ¯æĥħ": 2599,
      "Ġæĺ¯ä¸ª": 2600,
      "Ġæĺ¯åıĪ": 2601,
      "Ġæĺ¯èĢģ": 2602,
      "Ġæĺ¯åĦ¿": 2603,
      "Ġæĺ¯åĪ°": 2604,
      "Ġæĺ¯å¤ļ": 2605,
      "Ġæĺ¯åİ»": 2606,
      "Ġæĺ¯å¤´éģĵ": 2607,
      "å¥½æ¬¡": 2608,
      "å¥½å¼Ģ": 2609,
      "å¥½çĦ¶": 2610,
      "å¥½æĦı": 2611,
      "æĹłæĸ¯": 2612,
      "æĹłæĹ¶": 2613,
      "Ġä¹ĭè¡Į": 2614,
      "Ġä¹ĭèº«": 2615,
      "Ġä¹ĭä»¥": 2616,
      "Ġä¹ĭäºĨ": 2617,
      "Ġä¹ĭå¥½": 2618,
      "Ġä¹ĭæĸ¹": 2619,
      "Ġä¹ĭä¸Ĭ": 2620,
      "Ġä¹ĭå®ĥ": 2621,
      "åĪ°å®¶": 2622,
      "åĪ°æĦŁ": 2623,
      "åĪ°å¥³": 2624,
      "åĪ°å¯¹": 2625,
      "åĪ°ä½ľ": 2626,
      "åĪ°å¿ĥ": 2627,
      "åĪ°èĥ½": 2628,
      "åĪĨä¸Ń": 2629,
      "åĪĨæĸ¯": 2630,
      "åĪĨèº«": 2631,
      "åĪĨè¿Ļ": 2632,
      "åĪĨè¢«": 2633,
      "åĪĨèĢģ": 2634,
      "åĪĨåĲĮ": 2635,
      "éķ¿ç¾İ": 2636,
      "éķ¿ä¸º": 2637,
      "éķ¿åľ¨": 2638,
      "éķ¿ä½¿": 2639,
      "Ġçľĭä¹ĭ": 2640,
      "ĠçľĭåĴĮ": 2641,
      "ĠçľĭèĢĮ": 2642,
      "Ġçľĭè¿Ļ": 2643,
      "ĠçľĭåĲį": 2644,
      "Ġçľĭä½ł": 2645,
      "äºĽä½į": 2646,
      "äºĽåİ»": 2647,
      "å¤ļå¤©": 2648,
      "å¤ļå¥³": 2649,
      "å¤ļä»Ģ": 2650,
      "å¤ļå·±": 2651,
      "å¤ļæ´»": 2652,
      "Ġè¿ĺä½į": 2653,
      "Ġè¿ĺåľ°": 2654,
      "Ġè¿ĺèº«": 2655,
      "Ġè¿ĺä¸º": 2656,
      "Ġè¿ĺåıĳ": 2657,
      "Ġè¿ĺåĬ¨": 2658,
      "æľĢåıª": 2659,
      "æľĢæľŁ": 2660,
      "æľĢæĸ¯": 2661,
      "æľĢå¸¸": 2662,
      "æľĢæĿ¥": 2663,
      "æľĢå·²": 2664,
      "æľĢåĩº": 2665,
      "æľĢæľĢ": 2666,
      "æľĢä¸Ģ": 2667,
      "æľĢé«ĺ": 2668,
      "æľĢå®ĥ": 2669,
      "æĸ¹ç¾İ": 2670,
      "æĸ¹æ³ķ": 2671,
      "æĸ¹å¥³": 2672,
      "æĸ¹åľ¨": 2673,
      "æĸ¹åĲĮ": 2674,
      "åľ¨èĢĮ": 2675,
      "åľ¨éĿ¢": 2676,
      "åľ¨å¥½": 2677,
      "åŃĲéĥ½": 2678,
      "åŃĲå°±": 2679,
      "åŃĲä¼ļ": 2680,
      "åŃĲå¦Ĥ": 2681,
      "åŃĲç»Ļ": 2682,
      "åŃĲæĹ¥": 2683,
      "åŃĲåĩº": 2684,
      "åŃĲåĽł": 2685,
      "çľĭå°±": 2686,
      "çľĭå·²": 2687,
      "çľĭä½ľ": 2688,
      "çľĭåħ¶": 2689,
      "éģĵçļĦ": 2690,
      "éģĵå¥³": 2691,
      "éģĵä»¬": 2692,
      "éģĵæĹ¶": 2693,
      "éģĵä½¿": 2694,
      "ĠçĶ¨å¤´": 2695,
      "ĠçĶ¨æ³ķ": 2696,
      "ĠçĶ¨çļĦ": 2697,
      "ĠçĶ¨äºº": 2698,
      "ĠçĶ¨éķ¿": 2699,
      "ĠçĶ¨åı¯": 2700,
      "ä¸Ģæĸ¯": 2701,
      "ä¸ĢçĿĢ": 2702,
      "ä¸ĢéĤ£": 2703,
      "ä¸ĢåĽ½": 2704,
      "ä¸Ģåīį": 2705,
      "ä¸ĢåĪ°": 2706,
      "ä¸Ģéģĵ": 2707,
      "Ġå¤´åıª": 2708,
      "Ġå¤´ç»ı": 2709,
      "Ġå¤´æĬĬ": 2710,
      "Ġå¤´ç¬¬": 2711,
      "Ġå¥¹éĥ½": 2712,
      "Ġå¥¹æľŁ": 2713,
      "Ġå¥¹çĶŁ": 2714,
      "Ġå¥¹ç¬¬": 2715,
      "å¾Īæ¬¡": 2716,
      "å¾ĪéĤ£": 2717,
      "å¾Īå¼Ģ": 2718,
      "å¾Īæĥħ": 2719,
      "å¾ĪæĹł": 2720,
      "å¾Īä½ľ": 2721,
      "ĠåŃ¦å¤©": 2722,
      "ĠåŃ¦ä½Ĩ": 2723,
      "ĠåŃ¦èµ·": 2724,
      "ĠåŃ¦ä¹Ł": 2725,
      "ĠåŃ¦åĲį": 2726,
      "ĠåŃ¦è¢«": 2727,
      "ĠåŃ¦ä¸ĸ": 2728,
      "ĠåŃ¦å¥½": 2729,
      "ĠåŃ¦çľĭ": 2730,
      "ĠåŃ¦åħ¶": 2731,
      "ĠåŃ¦é«ĺ": 2732,
      "Ġç»ıä¹ĭ": 2733,
      "Ġç»ıä¸ĭ": 2734,
      "Ġç»ıçļĦ": 2735,
      "Ġç»ıä»¬": 2736,
      "Ġç»ıä¹Ī": 2737,
      "Ġç»ıèĩª": 2738,
      "Ġç»ıä»ĸ": 2739,
      "Ġç»ıè¿Ľ": 2740,
      "Ġç»ıå¹´": 2741,
      "ĠæĦŁæĦı": 2742,
      "ĠæĦŁéģĵ": 2743,
      "ĠæĦŁä½ľ": 2744,
      "çİ°å½ĵ": 2745,
      "çİ°ä¸İ": 2746,
      "çİ°åıĳ": 2747,
      "çİ°è¢«": 2748,
      "çİ°åĲİ": 2749,
      "çİ°ä¸Ĭ": 2750,
      "çĶŁèĥ½": 2751,
      "ĠåĩºäºĨ": 2752,
      "Ġåĩºä¸į": 2753,
      "Ġåĩºä¸ĸ": 2754,
      "Ġåĩºçİ°": 2755,
      "Ġåĩºå®ĥ": 2756,
      "ä½ľç»ı": 2757,
      "ä½ľè¢«": 2758,
      "ä½ľèĢģ": 2759,
      "ä½ľèĢħ": 2760,
      "ä½ľéĹ´": 2761,
      "ä»ĸä¸Ń": 2762,
      "ä»ĸæīĭ": 2763,
      "ä»ĸå½ĵ": 2764,
      "ä»ĸé«ĺ": 2765,
      "è¿Ľæ³ķ": 2766,
      "è¿Ľäºĭ": 2767,
      "è¿ĽéĹ´": 2768,
      "åİ»å¤©": 2769,
      "åİ»æĸ¯": 2770,
      "åİ»äºĭ": 2771,
      "åİ»å¸¸": 2772,
      "å¹´ä¸Ń": 2773,
      "å¹´åĪ°": 2774,
      "å¹´å¤ļ": 2775,
      "Ġå¸¸æ²¡": 2776,
      "Ġå¸¸åĲį": 2777,
      "Ġå¸¸åĪĨ": 2778,
      "Ġå¸¸ä½¿": 2779,
      "Ġå¸¸åĲĮ": 2780,
      "Ġæ³ķéĤ£": 2781,
      "Ġæ³ķèĢģ": 2782,
      "Ġæ³ķäºº": 2783,
      "Ġæ³ķçĶ¨": 2784,
      "ä½¿éĥ½": 2785,
      "ä½¿åıĪ": 2786,
      "Ġä½Ĩéĥ½": 2787,
      "Ġä½Ĩæīĭ": 2788,
      "Ġä½Ĩäº²": 2789,
      "Ġä½Ĩæł·": 2790,
      "Ġä½Ĩä»İ": 2791,
      "Ġä½ĨæĪĳ": 2792,
      "Ġä½Ĩæĥħ": 2793,
      "Ġä½Ĩå¾Ī": 2794,
      "Ġä½ĨéĹ´": 2795,
      "åı¯æĪĳ": 2796,
      "åı¯å¥½": 2797,
      "åı¯æĹł": 2798,
      "å¿ĥä½ł": 2799,
      "å¿ĥåĽ½": 2800,
      "å¿ĥæľĢ": 2801,
      "å¿ĥçİ°": 2802,
      "å¿ĥå¹´": 2803,
      "å¿ĥéĹ´": 2804,
      "çŁ¥æ²¡": 2805,
      "çŁ¥éĤ£": 2806,
      "çŁ¥å®ĥ": 2807,
      "Ġç¬¬æīĭ": 2808,
      "Ġç¬¬èº«": 2809,
      "Ġç¬¬å¥¹": 2810,
      "Ġç¬¬å½ĵ": 2811,
      "Ġç¬¬åıĪ": 2812,
      "Ġç¬¬åĲİ": 2813,
      "Ġç¬¬çĦ¶": 2814,
      "Ġç¬¬æľī": 2815,
      "Ġç¬¬åŃĲ": 2816,
      "Ġéķ¿å¼Ģ": 2817,
      "Ġéķ¿é«ĺ": 2818,
      "Ġéķ¿å®ĥ": 2819,
      "è¯Ŀåľ°": 2820,
      "è¯ĿäºĨ": 2821,
      "è¯ĿåĪĨ": 2822,
      "Ġç»ĻçļĦ": 2823,
      "Ġç»Ļæł·": 2824,
      "Ġç»Ļä¸ĸ": 2825,
      "Ġç»ĻèĢģ": 2826,
      "Ġç»Ļæĥ³": 2827,
      "Ġç»Ļè¿Ľ": 2828,
      "ĠåĪ°åĴĮ": 2829,
      "ĠåĪ°ä¸į": 2830,
      "ĠåĪ°æīĢ": 2831,
      "ĠåĪ°çĶŁ": 2832,
      "ĠåĪ°å®ĥ": 2833,
      "ĠåĪĨå¯¹": 2834,
      "ĠåĪĨèĩª": 2835,
      "ĠåĪĨåĪ°": 2836,
      "ĠåĪĨäºĽ": 2837,
      "ĠåĪĨèĥ½": 2838,
      "ĠåĪĨäºİ": 2839,
      "Ġæĸ¹ç¾İ": 2840,
      "Ġæĸ¹çĿĢ": 2841,
      "Ġæĸ¹å¦Ĥ": 2842,
      "Ġæĸ¹èĩª": 2843,
      "Ġæĸ¹åĽł": 2844,
      "Ġè¦ģå¤©": 2845,
      "Ġè¦ģä½Ĩ": 2846,
      "Ġè¦ģå¼Ģ": 2847,
      "Ġè¦ģæĹ¶": 2848,
      "Ġè¦ģåİ»": 2849,
      "ä¸Ĭæĸ¯": 2850,
      "ä¸ĬèĢĮ": 2851,
      "ä¸Ĭå¥¹": 2852,
      "ä¸Ĭæł·": 2853,
      "ä¸Ĭå¯¹": 2854,
      "ä¸Ĭä¸ª": 2855,
      "ä¸ĬåŃĲ": 2856,
      "ä¸Ĭæ´»": 2857,
      "Ġæīĭå°±": 2858,
      "Ġæīĭå¤§": 2859,
      "Ġæīĭåīį": 2860,
      "Ġæīĭè¿Ľ": 2861,
      "åħ¶æĺ¯": 2862,
      "åħ¶åı¯": 2863,
      "é«ĺä¹Ł": 2864,
      "é«ĺå½ĵ": 2865,
      "é«ĺè¿Ľ": 2866,
      "é«ĺåı¯": 2867,
      "ĠåĦ¿æ¬¡": 2868,
      "ĠåĦ¿ä¸į": 2869,
      "Ġæł·è¦ģ": 2870,
      "Ġæł·ä¸Ĭ": 2871,
      "Ġæł·æ´»": 2872,
      "Ġæł·åĽł": 2873,
      "Ġæ´»èµ·": 2874,
      "Ġæ´»æŃ£": 2875,
      "Ġæ´»ä»Ģ": 2876,
      "Ġæ´»èĢģ": 2877,
      "Ġæ´»åīį": 2878,
      "ĠéĿ¢å®¶": 2879,
      "ĠéĿ¢æīĭ": 2880,
      "ĠéĿ¢æĺ¯": 2881,
      "ĠéĿ¢ä¸ĭ": 2882,
      "ĠéĿ¢ä»¥": 2883,
      "ĠéĿ¢åĬ¨": 2884,
      "ĠéĿ¢åıĪ": 2885,
      "ĠéĿ¢æīĢ": 2886,
      "ĠéĿ¢åĪĨ": 2887,
      "ĠäºİæĪĲ": 2888,
      "Ġäºİæ¬¡": 2889,
      "ĠäºİæŃ¤": 2890,
      "Ġäºİä½ł": 2891,
      "Ġæĥ³ä¹ĭ": 2892,
      "Ġæĥ³éĩĮ": 2893,
      "Ġæĥ³äºĨ": 2894,
      "Ġæĥ³åĲĮ": 2895,
      "å®ĥå®¶": 2896,
      "Ġåīįä¸ª": 2897,
      "ĠåīįèĢģ": 2898,
      "ĠåīįåĦ¿": 2899,
      "ĠåīįæĢ»": 2900,
      "Ġé«ĺä¸ĭ": 2901,
      "Ġé«ĺä¹Ł": 2902,
      "Ġé«ĺæĿ¥": 2903,
      "Ġé«ĺä¸º": 2904,
      "Ġé«ĺä¸ĸ": 2905,
      "Ġé«ĺåĩº": 2906,
      "Ġé«ĺåħ¶": 2907,
      "Ġåı¯è¯´": 2908,
      "Ġåı¯æĪĳ": 2909,
      "Ġåı¯ç»Ļ": 2910,
      "Ġåı¯æĦı": 2911,
      "ĠåĽŀå¾Ĺ": 2912,
      "ĠåĽŀè¿ĩ": 2913,
      "ĠåĽŀæĹ¶": 2914,
      "ĠåĽŀèĢħ": 2915,
      "ĠåĽŀä»ĸ": 2916,
      "ĠåĽŀç§į": 2917,
      "å°ıå¤´": 2918,
      "å°ıä»¥": 2919,
      "å°ıä¹Ī": 2920,
      "å°ıå¥½": 2921,
      "Ġæĥħåľ°": 2922,
      "ĠæĥħåĲį": 2923,
      "Ġæĥħç»Ļ": 2924,
      "ĠæĥħéĿ¢": 2925,
      "Ġæĥħèĥ½": 2926,
      "ĠæĪĳç¾İ": 2927,
      "ĠæĪĳèĩª": 2928,
      "ĠæĪĳä»ĸ": 2929,
      "ĠåĴĮéĤ£": 2930,
      "ĠåĴĮè¯´": 2931,
      "ĠçĦ¶æ³ķ": 2932,
      "ĠçĦ¶è¿Ļ": 2933,
      "ĠçĦ¶åŃ¦": 2934,
      "ĠçĦ¶äºº": 2935,
      "ĠçĦ¶åĦ¿": 2936,
      "ĠçĦ¶å®ĥ": 2937,
      "Ġåıªè¡Į": 2938,
      "ĠåıªæĪĲ": 2939,
      "Ġåıªæīĭ": 2940,
      "Ġåıªæ¬¡": 2941,
      "Ġåıªè¿ĩ": 2942,
      "ĠåıªåĽ½": 2943,
      "Ġåıªåīį": 2944,
      "Ġåıªå¾Ī": 2945,
      "ĠåıªçĪ±": 2946,
      "ĠæĹ¶æľŁ": 2947,
      "ĠæĹ¶èº«": 2948,
      "ĠæĹ¶åĲį": 2949,
      "ĠæĹ¶ä¹Ī": 2950,
      "ĠæĹ¶ä¸Ĭ": 2951,
      "Ġåľ¨ä¹ĭ": 2952,
      "Ġåľ¨åŃ¦": 2953,
      "Ġåľ¨æīĢ": 2954,
      "Ġåľ¨è¿Ľ": 2955,
      "æ´»å¤´": 2956,
      "æ´»æĸ¯": 2957,
      "æ´»å¼Ģ": 2958,
      "æ´»éģĵ": 2959,
      "Ġå¦Ĥä»İ": 2960,
      "Ġå¦Ĥå½ĵ": 2961,
      "Ġå¦Ĥåıĳ": 2962,
      "Ġå¦ĤæĢ»": 2963,
      "Ġå¦Ĥä¸Ģ": 2964,
      "Ġå¦ĤåĲĮ": 2965,
      "Ġå¦ĤåĽŀ": 2966,
      "ĠæĢ»éĩĮ": 2967,
      "ĠæĢ»ä»İ": 2968,
      "ĠæĢ»å¯¹": 2969,
      "ĠæĢ»ä¸ª": 2970,
      "ĠæĢ»å¿ĥ": 2971,
      "ĠéĩĮç¾İ": 2972,
      "ĠéĩĮåĴĮ": 2973,
      "ĠéĩĮä¹Ł": 2974,
      "ĠéĩĮä¸º": 2975,
      "ĠéĩĮä½ł": 2976,
      "ĠéĩĮåľ¨": 2977,
      "ĠéĹ´å¯¹": 2978,
      "ĠéĹ´å¤§": 2979,
      "ĠéĹ´æľĢ": 2980,
      "ĠéĹ´éĹ´": 2981,
      "Ġå¤§éĩĮ": 2982,
      "Ġå¤§è¿ĩ": 2983,
      "Ġå¤§æĪĳ": 2984,
      "Ġå¤§æĹ¥": 2985,
      "Ġå¤§åıĪ": 2986,
      "Ġå¤§æĹł": 2987,
      "åĲĮå¾Ĺ": 2988,
      "åĲĮåīį": 2989,
      "åĽŀæľŁ": 2990,
      "åĽŀæĦŁ": 2991,
      "åĽŀå·²": 2992,
      "åĽŀä½¿": 2993,
      "åĽŀåı¯": 2994,
      "ĠåĽłå¾Ĺ": 2995,
      "ĠåĽłå®¶": 2996,
      "ĠåĽłäºĨ": 2997,
      "ĠåĽłéģĵ": 2998,
      "ĠåĽłåı¯": 2999,
      "Ġå·²æ²¡": 3000,
      "Ġå·²æĺ¯": 3001,
      "Ġå·²äºĨ": 3002,
      "Ġå·²æŃ£": 3003,
      "Ġå·²æīĢ": 3004,
      "Ġå·²åİ»": 3005,
      "Ġè¯Ŀä»¥": 3006,
      "Ġè¯Ŀç»ı": 3007,
      "Ġè¯Ŀå¦Ĥ": 3008,
      "Ġè¯Ŀçľĭ": 3009,
      "Ġè¯ĿçĶ¨": 3010,
      "çĶ¨äº²": 3011,
      "çĶ¨èĢģ": 3012,
      "çĶ¨åĪĨ": 3013,
      "çĶ¨åı¯": 3014,
      "ç§įæ²¡": 3015,
      "ç§įèµ·": 3016,
      "ç§įä¸º": 3017,
      "ç§įå·²": 3018,
      "ç§įåŃĲ": 3019,
      "ĠçĪ±è¿ĺ": 3020,
      "ĠçĪ±æĿ¥": 3021,
      "ĠçĪ±éĿ¢": 3022,
      "ĠçĪ±èĩª": 3023,
      "ĠçĪ±å¾Ī": 3024,
      "ĠçĪ±çĶŁ": 3025,
      "ĠçĪ±åİ»": 3026,
      "ĠçĪ±ç§į": 3027,
      "ĠçĪ±äºİ": 3028,
      "Ġäººå¾Ĺ": 3029,
      "Ġäººèµ·": 3030,
      "Ġäººæ¬¡": 3031,
      "Ġäººä»İ": 3032,
      "Ġäººä¸¤": 3033,
      "Ġå¤ļåıĳ": 3034,
      "Ġå¤ļéĿ¢": 3035,
      "Ġå¤ļçĦ¶": 3036,
      "Ġå¤ļèĥ½": 3037,
      "Ġå¤ļæ´»": 3038,
      "Ġè¿Ľæ³ķ": 3039,
      "Ġè¿Ľèº«": 3040,
      "Ġè¿ĽæĦŁ": 3041,
      "Ġè¿Ľäºº": 3042,
      "Ġè¿ĽèĢħ": 3043,
      "åĽłä¸ĭ": 3044,
      "åĽłä¸º": 3045,
      "åĽłæĪĳ": 3046,
      "åĽłèĩª": 3047,
      "åĽłåīį": 3048,
      "Ġæĸ¯ä»İ": 3049,
      "Ġæĸ¯åĬ¨": 3050,
      "Ġæĸ¯éĿ¢": 3051,
      "Ġæĸ¯éģĵ": 3052,
      "Ġæĸ¯ä½¿": 3053,
      "Ġæĸ¯çŁ¥": 3054,
      "Ġæĸ¯çĶ¨": 3055,
      "ĠæŃ¤æ²¡": 3056,
      "ĠæŃ¤åľ°": 3057,
      "ĠæŃ¤ç»ı": 3058,
      "ĠæŃ¤å¤ļ": 3059,
      "ĠæŃ¤æľĢ": 3060,
      "ç¬¬ä¼ļ": 3061,
      "ç¬¬ä½ľ": 3062,
      "ç¬¬å¹´": 3063,
      "éĹ´å¾Ĺ": 3064,
      "éĹ´æĺ¯": 3065,
      "éĹ´æīĢ": 3066,
      "Ġä¸ŃçĿĢ": 3067,
      "Ġä¸ŃåŃ¦": 3068,
      "Ġä¸Ńåīį": 3069,
      "Ġä¸Ńäºİ": 3070,
      "äºİäºĨ": 3071,
      "äºİåĲį": 3072,
      "äºİä¹Ī": 3073,
      "Ġäº²è¿Ļ": 3074,
      "Ġäº²è¯´": 3075,
      "Ġäº²æĥħ": 3076,
      "Ġäº²éĿ¢": 3077,
      "Ġäº²æľī": 3078,
      "Ġäº²æĦı": 3079,
      "Ġäº²äºº": 3080,
      "Ġäº²å¹´": 3081,
      "Ġå¤©æľŁ": 3082,
      "Ġå¤©ä¸ª": 3083,
      "ĠåıĪæĪĲ": 3084,
      "ĠåıĪè¿ĩ": 3085,
      "ĠåıĪæĿ¥": 3086,
      "ĠåıĪæŃ£": 3087,
      "ĠåıĪç»Ļ": 3088,
      "ĠåıĪæĸ¹": 3089,
      "ĠèĢģæ²¡": 3090,
      "ĠèĢģä½Ĩ": 3091,
      "ĠèĢģå°±": 3092,
      "ĠèĢģä¼ļ": 3093,
      "ĠèĢģæ¬¡": 3094,
      "ĠèĢģåıĳ": 3095,
      "ĠèĢģéĿ¢": 3096,
      "ĠèĢģä½ľ": 3097,
      "ĠæľŁæĪĲ": 3098,
      "ĠæľŁä¸Ń": 3099,
      "ĠæľŁæł·": 3100,
      "ĠæľŁåıĳ": 3101,
      "ĠæľŁå¤ļ": 3102,
      "ĠæľŁè¿Ľ": 3103,
      "ĠæľŁæ´»": 3104,
      "Ġä¹Łç¾İ": 3105,
      "Ġä¹Łè¢«": 3106,
      "Ġä¹Łä½ł": 3107,
      "Ġä¹ŁæĢ»": 3108,
      "Ġä¹Łä¸Ĭ": 3109,
      "ĠæĬĬèĢĮ": 3110,
      "ĠæĬĬåıĳ": 3111,
      "ĠæĬĬä¸ª": 3112,
      "ĠæĬĬæīĢ": 3113,
      "ĠæĬĬéķ¿": 3114,
      "ĠæĬĬçľĭ": 3115,
      "ĠäºĽä¹Ł": 3116,
      "ĠäºĽè¿ĩ": 3117,
      "ĠäºĽä»İ": 3118,
      "ĠäºĽåĩº": 3119,
      "ĠäºĽåĦ¿": 3120,
      "Ġè¿ĩè¡Į": 3121,
      "Ġè¿ĩæĦı": 3122,
      "Ġè¿ĩçĶŁ": 3123,
      "Ġè¿ĩå¿ĥ": 3124,
      "Ġè¿ĩåħ¶": 3125,
      "Ġè¿ĩå®ĥ": 3126,
      "çĪ±è¯´": 3127,
      "çĪ±ä¸¤": 3128,
      "çĪ±å¤ļ": 3129,
      "çĪ±å¿ĥ": 3130,
      "Ġå½ĵç¾İ": 3131,
      "Ġå½ĵä½į": 3132,
      "Ġå½ĵéĥ½": 3133,
      "Ġå½ĵä¸¤": 3134,
      "Ġå½ĵç»Ļ": 3135,
      "Ġå½ĵå·±": 3136,
      "Ġå½ĵåĩº": 3137,
      "Ġå½ĵä¸Ĭ": 3138,
      "Ġèĥ½ä¼ļ": 3139,
      "Ġèĥ½æĹ¥": 3140,
      "Ġèĥ½æĢ»": 3141,
      "Ġä»İæľŁ": 3142,
      "Ġä»İä»¥": 3143,
      "Ġä»İå¥³": 3144,
      "Ġä»İç»ı": 3145,
      "Ġä»İç»Ļ": 3146,
      "Ġä»İåĪ°": 3147,
      "Ġä»İéķ¿": 3148,
      "Ġä»İçİ°": 3149,
      "Ġä»İé«ĺ": 3150,
      "Ġå¥³æĪĲ": 3151,
      "Ġå¥³åĴĮ": 3152,
      "Ġå¥³è¿ĩ": 3153,
      "Ġå¥³æĬĬ": 3154,
      "Ġå¥³åĲİ": 3155,
      "Ġå¥³è¿ĽéĹ´": 3156,
      "Ġåľ°ä¸ĭ": 3157,
      "Ġåľ°äº²": 3158,
      "Ġåľ°å¥³": 3159,
      "Ġåľ°å·±": 3160,
      "Ġåľ°å¾Ī": 3161,
      "Ġæ¬¡åĲį": 3162,
      "Ġæ¬¡ä»İ": 3163,
      "Ġè¢«å°±": 3164,
      "Ġè¢«æĦŁ": 3165,
      "Ġè¢«ä¸º": 3166,
      "Ġè¢«å·±": 3167,
      "Ġè¢«å¤§": 3168,
      "Ġè¢«æĸ¹": 3169,
      "Ġä¸ªå½ĵ": 3170,
      "Ġä½łèĢĮ": 3171,
      "Ġä½łä¸º": 3172,
      "Ġä½łäº²": 3173,
      "Ġä½łæľĢ": 3174,
      "Ġä½łåľ¨": 3175,
      "Ġå·±æĺ¯": 3176,
      "Ġå·±åıĳ": 3177,
      "Ġå·±å·±": 3178,
      "ĠæŃ£å¤©": 3179,
      "ĠæŃ£ä»İ": 3180,
      "ĠæŃ£å¦Ĥ": 3181,
      "ĠæŃ£æĹ¥": 3182,
      "ĠæŃ£éĿ¢": 3183,
      "ĠæŃ£æīĢ": 3184,
      "Ġå¯¹ä½į": 3185,
      "Ġå¯¹çľĭ": 3186,
      "Ġå¯¹èĥ½": 3187,
      "Ġåİ»å¥¹": 3188,
      "Ġåİ»éķ¿": 3189,
      "Ġåİ»çĪ±": 3190,
      "Ġèº«ä¹ĭ": 3191,
      "Ġèº«èµ·": 3192,
      "Ġèº«ç»ı": 3193,
      "Ġèº«æĥħ": 3194,
      "Ġèº«æīĢ": 3195,
      "Ġç¾İæĿ¥": 3196,
      "Ġç¾İä»İ": 3197,
      "Ġç¾İå¦Ĥ": 3198,
      "Ġä¸ĭåľ°": 3199,
      "Ġä¸ĭèĩª": 3200,
      "Ġä¸ĭåĪĨ": 3201,
      "Ġä¸ĭæĸ¹": 3202,
      "Ġä¸ĭéĹ´": 3203,
      "Ġä¸ĸåĴĮ": 3204,
      "Ġä¸ĸä»¥": 3205,
      "Ġä¸ĸèĢĮ": 3206,
      "Ġä¸ĸåīį": 3207,
      "Ġä¸ĸçŁ¥": 3208,
      "Ġä¸ĸåħ¶": 3209,
      "Ġå°ıä¸Ń": 3210,
      "Ġå°ıæĸ¯": 3211,
      "Ġå°ıèĢĮ": 3212,
      "Ġå°ıç»Ļ": 3213,
      "Ġå°ıä¸į": 3214,
      "Ġå°ıä¸ª": 3215,
      "Ġåħ¶èµ·": 3216,
      "Ġåħ¶æĦŁ": 3217,
      "Ġåħ¶ä»¥": 3218,
      "Ġåħ¶å¸¸": 3219,
      "Ġåħ¶ä»İ": 3220,
      "Ġåħ¶ç»Ļ": 3221,
      "Ġåħ¶æĬĬ": 3222,
      "Ġåħ¶éģĵ": 3223,
      "Ġç§įä¹ĭ": 3224,
      "Ġç§įä»¥": 3225,
      "Ġç§įå¸¸": 3226,
      "Ġç§įå¦Ĥ": 3227,
      "Ġç§įèĩª": 3228,
      "Ġç§įäºĽ": 3229,
      "Ġç§įå¹´": 3230,
      "Ġè¿Ļä¹ĭ": 3231,
      "Ġè¿ĻèĢħ": 3232,
      "Ġè¿Ļå¹´": 3233,
      "Ġè¿ĻçĶ¨": 3234,
      "Ġå¥½éĥ½": 3235,
      "Ġå¥½ä¸¤": 3236,
      "Ġå¥½çĪ±": 3237,
      "ĠåĽ½çļĦ": 3238,
      "ĠåĽ½éĿ¢": 3239,
      "ĠåĽ½æĦı": 3240,
      "ĠåĽ½çŁ¥": 3241,
      "Ġå¿ĥæ¬¡": 3242,
      "Ġå¿ĥå·±": 3243,
      "Ġå¿ĥåıĪ": 3244,
      "Ġå¿ĥåĪ°": 3245,
      "Ġå¿ĥåŃĲ": 3246,
      "Ġå®ĥä¸ĭ": 3247,
      "Ġå®ĥèĢģ": 3248,
      "Ġå®ĥæĢ»": 3249,
      "Ġå®ĥåľ¨": 3250,
      "Ġä¼ļæ³ķ": 3251,
      "Ġä¼ļåıĪ": 3252,
      "Ġèĩªå¤©": 3253,
      "Ġèĩªä¸Ń": 3254,
      "Ġèĩªä½ł": 3255,
      "ĠèĩªæĦı": 3256,
      "Ġä½¿ä¸ĭ": 3257,
      "Ġä½¿çļĦ": 3258,
      "Ġä½¿ä¸º": 3259,
      "Ġä½¿æĦı": 3260,
      "Ġä½¿çŁ¥": 3261,
      "Ġä½įå®¶": 3262,
      "Ġä½įåĽ½": 3263,
      "Ġä½įçľĭ": 3264,
      "Ġä½įä½¿": 3265,
      "Ġä½įåĽł": 3266,
      "Ġåıĳå¤©": 3267,
      "Ġåıĳåīį": 3268,
      "Ġåıĳä¸Ģ": 3269,
      "ĠæĦıäº²": 3270,
      "ĠæĦıè¦ģ": 3271,
      "ĠæĦıéĿ¢": 3272,
      "ĠæĦıåİ»": 3273,
      "ĠæĦıå¿ĥ": 3274,
      "ĠæĦıçŁ¥": 3275,
      "Ġè¯´èµ·": 3276,
      "Ġè¯´è¿ĩ": 3277,
      "Ġè¯´ä»İ": 3278,
      "Ġè¯´å½ĵ": 3279,
      "Ġå°±ä»¥": 3280,
      "Ġå°±æľī": 3281,
      "Ġå°±èĢħ": 3282,
      "Ġå°±äºĽ": 3283,
      "Ġå°±èĥ½": 3284,
      "Ġå¾Īè¡Į": 3285,
      "Ġå¼Ģç»ı": 3286,
      "Ġå¼Ģåıĳ": 3287,
      "Ġå¼Ģå·±": 3288,
      "Ġå¼Ģéķ¿": 3289,
      "Ġä¸ºéĩĮ": 3290,
      "Ġä¸ºåıĳ": 3291,
      "Ġä¸Ģä½į": 3292,
      "Ġä¸ĢæĪĳ": 3293,
      "Ġä¸Ĭå¤§": 3294,
      "Ġä¸ĬåıĪ": 3295,
      "Ġä¸ĬæĹ¶": 3296,
      "Ġä¸ĬåĦ¿": 3297,
      "Ġä¸ĬçĶŁ": 3298,
      "ĠæĹ¥ä»¥": 3299,
      "ĠæĹ¥å·²": 3300,
      "ĠæĹ¥åŃ¦": 3301,
      "ĠèĢĮå¤§": 3302,
      "ĠæĪĲä¸¤": 3303,
      "ĠæĪĲä»ĸ": 3304,
      "ĠæĪĲé«ĺ": 3305,
      "Ġå¹´ä¹ĭ": 3306,
      "Ġå¹´ç»ı": 3307,
      "Ġå¹´æŃ¤": 3308,
      "Ġå¹´ä¸ª": 3309,
      "Ġå¹´èĢħ": 3310,
      "Ġä»¥å¾Ĺ": 3311,
      "Ġä»¥ä¹Ł": 3312,
      "Ġä»¥ä»¥": 3313,
      "Ġä»¥è¿ĩ": 3314,
      "Ġä»¥å·²": 3315,
      "Ġä»¥ä»Ģ": 3316,
      "Ġä»¥æŃ¤": 3317,
      "Ġä»¥æľī": 3318,
      "Ġä½ľè¿ĩ": 3319,
      "Ġä½ľåĪ°": 3320,
      "Ġä½ľå°ı": 3321,
      "ĠåĲįåľ°": 3322,
      "ĠåĲįè¿Ļ": 3323,
      "ĠåĲįæł·": 3324,
      "ĠåĲįæŃ¤": 3325,
      "ĠåĲįåı¯": 3326,
      "ĠåĲįå¯¹å¹´": 3327,
      "Ġå¾Ĺæĥħ": 3328,
      "Ġå¾ĹæĹ¶": 3329,
      "Ġå¾ĹçĦ¶": 3330,
      "Ġå¾Ĺæľī": 3331,
      "Ġèµ·åľ°": 3332,
      "Ġèµ·çĿĢ": 3333,
      "Ġèµ·ä¸į": 3334,
      "Ġèµ·æĢ»": 3335,
      "Ġèµ·åľ¨": 3336,
      "Ġçİ°å¤´": 3337,
      "Ġçİ°æīĭ": 3338,
      "Ġçİ°èº«": 3339,
      "Ġçİ°çļĦ": 3340,
      "Ġçİ°ä»İ": 3341,
      "Ġçİ°ä¸¤": 3342,
      "Ġçİ°ä¸İ": 3343,
      "Ġçİ°åĽŀ": 3344,
      "Ġè¡Įä»İ": 3345,
      "Ġè¡ĮåĦ¿": 3346,
      "Ġè¡Įå¾Ī": 3347,
      "ĠéĤ£å¤´": 3348,
      "ĠéĤ£ç¾İ": 3349,
      "ĠéĤ£æĦŁ": 3350,
      "ĠéĤ£çļĦ": 3351,
      "ĠéĤ£æŃ£": 3352,
      "ĠéĤ£è¯´": 3353,
      "ĠéĤ£èĢħ": 3354,
      "ĠéĤ£å¹´": 3355,
      "Ġäºĭæ³ķ": 3356,
      "ĠäºĭæŃ¤": 3357,
      "ĠäºĭçĶŁ": 3358,
      "ĠåĲİæĪĳ": 3359,
      "ĠåĲİä¸ª": 3360,
      "ĠåĲİçĦ¶": 3361,
      "ĠåĲİæľī": 3362,
      "ĠåĲİäºº": 3363,
      "ĠçĿĢå¤´": 3364,
      "ĠçĿĢåĴĮ": 3365,
      "ĠçĿĢæĸ¯": 3366,
      "ĠçĿĢå¥³": 3367,
      "ĠçĿĢå¯¹": 3368,
      "ĠæīĢåľ°": 3369,
      "ĠæīĢè¯´": 3370,
      "ĠæīĢæĹ¥": 3371,
      "ĠæīĢæĢ»": 3372,
      "ĠæīĢä½¿": 3373,
      "ĠæīĢçĶ¨": 3374,
      "ĠæľĢå¥¹": 3375,
      "ĠæľĢå¦Ĥ": 3376,
      "ĠæľĢæĹ¶": 3377,
      "ĠæľĢæĹł": 3378,
      "ĠæľĢè¿Ľ": 3379,
      "ĠæľĢèĥ½": 3380,
      "ĠäºĨä¹ĭ": 3381,
      "ĠäºĨå¤©": 3382,
      "ĠäºĨæīĭ": 3383,
      "Ġä»¬å¾Ĺ": 3384,
      "Ġä»¬å·²": 3385,
      "Ġä»¬åĪĨ": 3386,
      "Ġä»¬éģĵ": 3387,
      "Ġä»¬è¯Ŀ": 3388,
      "ĠæĿ¥è¿ĺ": 3389,
      "ĠæĿ¥ä½Ĩ": 3390,
      "ĠæĿ¥åľ¨": 3391,
      "ĠçĶŁå¤©": 3392,
      "ĠçĶŁä½Ĩ": 3393,
      "ĠçĶŁæĥħ": 3394,
      "ĠçĶŁèĢħ": 3395,
      "Ġéģĵä¸İ": 3396,
      "Ġéģĵåıĳ": 3397,
      "Ġéģĵçľĭ": 3398,
      "Ġéģĵå®ĥ": 3399,
      "Ġä¹Īä¸º": 3400,
      "Ġä¹Īä»ĸ": 3401,
      "Ġä¸¤ä¹ĭ": 3402,
      "Ġä¸¤ä¸ª": 3403,
      "Ġä¸¤åĪĨ": 3404,
      "ĠåĬ¨è¢«": 3405,
      "ĠåĬ¨åħ¶": 3406,
      "ĠåĬ¨åĲĮ": 3407,
      "ãĢģ<": 3408,
      "âĢľ<": 3409,
      "ãĢĳ%": 3410,
      "ãĢĳ/": 3411,
      "ãĢĳ<": 3412,
      "Â¥Â¥": 3413,
      "Ġ:âĢĿ]": 3414,
      "Ġ;(>": 3415,
      "åľ°ç§įè¦ģ": 3416,
      "!\"": 3417,
      "!#": 3418,
      "!&": 3419,
      "!(": 3420,
      "!)": 3421,
      "!}": 3422,
      "!)(": 3423,
      "\"&": 3424,
      "\")": 3425,
      "\"/": 3426,
      "\"<": 3427,
      "\"]": 3428,
      "#;": 3429,
      "$)": 3430,
      "$,": 3431,
      "$[": 3432,
      "$Â¥": 3433,
      "$\")": 3434,
      "%*": 3435,
      "%<": 3436,
      "%[": 3437,
      "%^": 3438,
      "%Â£": 3439,
      "%!<": 3440,
      "&-": 3441,
      "&.": 3442,
      "&@": 3443,
      "'-": 3444,
      "';": 3445,
      "'<": 3446,
      "'|": 3447,
      "('": 3448,
      "(,": 3449,
      "({": 3450,
      "(âĢĻ": 3451,
      "((ãĢĲ": 3452,
      ")$": 3453,
      ")-": 3454,
      ")/": 3455,
      ")}": 3456,
      ")ãĢĲ": 3457,
      ")ãĢĭ": 3458,
      "*%": 3459,
      "*(": 3460,
      "*|": 3461,
      "+\"": 3462,
      "+#": 3463,
      "+;": 3464,
      "+[": 3465,
      "+^": 3466,
      ",*": 3467,
      ",:": 3468,
      ",|": 3469,
      "-.": 3470,
      "-ãĢĬ": 3471,
      "-ãĢĳ<": 3472,
      "-+[": 3473,
      "/[": 3474,
      "/\\": 3475,
      "/^": 3476,
      "/Â£": 3477,
      "03": 3478,
      "14": 3479,
      "16": 3480,
      "31": 3481,
      "45": 3482,
      "58": 3483,
      "60": 3484,
      "68": 3485,
      "74": 3486,
      "81": 3487,
      "84": 3488,
      "99": 3489,
      ":%": 3490,
      "::": 3491,
      ":^": 3492,
      ":{": 3493,
      ":ãĢĳ": 3494,
      ":ãĢĭ": 3495,
      ";(": 3496,
      ";*": 3497,
      ";;": 3498,
      ";?": 3499,
      ";@": 3500,
      ";]": 3501,
      ";{": 3502,
      ";âĤ¬": 3503,
      ";ãĢĬ": 3504,
      ";âĢĻ": 3505,
      ";ãĢĳ": 3506,
      "<+": 3507,
      "<ãĢģ": 3508,
      "=%": 3509,
      "='": 3510,
      "=*": 3511,
      "=+": 3512,
      "=âĢĻ": 3513,
      ">$": 3514,
      ">*": 3515,
      ">,": 3516,
      "><": 3517,
      ">ãĢģ": 3518,
      ">âĢľ": 3519,
      ">âĢĿ": 3520,
      ">!-": 3521,
      ">+;": 3522,
      "?&": 3523,
      "?(": 3524,
      "?/": 3525,
      "?[": 3526,
      "?Â£": 3527,
      "?);": 3528,
      "?!#": 3529,
      "@!": 3530,
      "@;": 3531,
      "@<": 3532,
      "@[": 3533,
      "@{": 3534,
      "AY": 3535,
      "Ad": 3536,
      "As": 3537,
      "Ay": 3538,
      "BG": 3539,
      "BS": 3540,
      "Bq": 3541,
      "Bt": 3542,
      "Cm": 3543,
      "Cq": 3544,
      "Ct": 3545,
      "Cu": 3546,
      "Cx": 3547,
      "DB": 3548,
      "DS": 3549,
      "Df": 3550,
      "Dy": 3551,
      "EJ": 3552,
      "ES": 3553,
      "Ew": 3554,
      "Fz": 3555,
      "Gc": 3556,
      "GMU": 3557,
      "HA": 3558,
      "HQ": 3559,
      "HCu": 3560,
      "IB": 3561,
      "IK": 3562,
      "IO": 3563,
      "IT": 3564,
      "Il": 3565,
      "In": 3566,
      "Io": 3567,
      "Is": 3568,
      "Ix": 3569,
      "JA": 3570,
      "JN": 3571,
      "JV": 3572,
      "Jx": 3573,
      "KB": 3574,
      "LD": 3575,
      "LP": 3576,
      "Lj": 3577,
      "Lo": 3578,
      "MI": 3579,
      "MP": 3580,
      "Mk": 3581,
      "Mm": 3582,
      "Mz": 3583,
      "MQo": 3584,
      "MBG": 3585,
      "NE": 3586,
      "NJ": 3587,
      "NL": 3588,
      "NN": 3589,
      "Nj": 3590,
      "Nn": 3591,
      "Nu": 3592,
      "Nx": 3593,
      "Nsm": 3594,
      "OQ": 3595,
      "OV": 3596,
      "OW": 3597,
      "OX": 3598,
      "Pf": 3599,
      "Pj": 3600,
      "QI": 3601,
      "QS": 3602,
      "QX": 3603,
      "Qi": 3604,
      "RY": 3605,
      "Rz": 3606,
      "SN": 3607,
      "SZ": 3608,
      "Sb": 3609,
      "Sh": 3610,
      "Sw": 3611,
      "TP": 3612,
      "Tj": 3613,
      "Tz": 3614,
      "TBt": 3615,
      "UA": 3616,
      "UB": 3617,
      "UM": 3618,
      "Uo": 3619,
      "VK": 3620,
      "Vl": 3621,
      "Vp": 3622,
      "Vs": 3623,
      "WE": 3624,
      "WW": 3625,
      "Wj": 3626,
      "Ws": 3627,
      "WJx": 3628,
      "WTP": 3629,
      "XC": 3630,
      "XH": 3631,
      "XW": 3632,
      "Xy": 3633,
      "Xau": 3634,
      "YQ": 3635,
      "YU": 3636,
      "YPj": 3637,
      "ZS": 3638,
      "Zd": 3639,
      "Zo": 3640,
      "ZUo": 3641,
      "[!": 3642,
      "[=": 3643,
      "[|": 3644,
      "[âĢľ": 3645,
      "[#<": 3646,
      "\\)": 3647,
      "\\âĤ¬": 3648,
      "\\ãĢĬ": 3649,
      "\\âĢĿ": 3650,
      "\\ãĢĭ": 3651,
      "].": 3652,
      "]ãĢĬ": 3653,
      "^.": 3654,
      "^*%": 3655,
      "aL": 3656,
      "aU": 3657,
      "av": 3658,
      "bB": 3659,
      "cA": 3660,
      "cCt": 3661,
      "dB": 3662,
      "dC": 3663,
      "dK": 3664,
      "dT": 3665,
      "dk": 3666,
      "dt": 3667,
      "eL": 3668,
      "em": 3669,
      "eu": 3670,
      "ex": 3671,
      "ePf": 3672,
      "fr": 3673,
      "fs": 3674,
      "fv": 3675,
      "gP": 3676,
      "gU": 3677,
      "gd": 3678,
      "gi": 3679,
      "gy": 3680,
      "gXH": 3681,
      "iF": 3682,
      "iN": 3683,
      "iW": 3684,
      "ie": 3685,
      "iIs": 3686,
      "jZ": 3687,
      "jb": 3688,
      "jx": 3689,
      "jJA": 3690,
      "kF": 3691,
      "kO": 3692,
      "kT": 3693,
      "kh": 3694,
      "lL": 3695,
      "la": 3696,
      "lg": 3697,
      "lj": 3698,
      "lw": 3699,
      "mG": 3700,
      "mm": 3701,
      "mIx": 3702,
      "nM": 3703,
      "nf": 3704,
      "nx": 3705,
      "nZd": 3706,
      "oP": 3707,
      "ogU": 3708,
      "pZ": 3709,
      "pm": 3710,
      "pw": 3711,
      "pSq": 3712,
      "qK": 3713,
      "qP": 3714,
      "qi": 3715,
      "rE": 3716,
      "rP": 3717,
      "rX": 3718,
      "rZ": 3719,
      "rla": 3720,
      "sF": 3721,
      "sS": 3722,
      "tF": 3723,
      "tI": 3724,
      "tJ": 3725,
      "uA": 3726,
      "uE": 3727,
      "uL": 3728,
      "uQ": 3729,
      "uZ": 3730,
      "ua": 3731,
      "uNu": 3732,
      "uem": 3733,
      "vr": 3734,
      "wB": 3735,
      "wG": 3736,
      "wV": 3737,
      "wX": 3738,
      "wZ": 3739,
      "wi": 3740,
      "xG": 3741,
      "xK": 3742,
      "xR": 3743,
      "xf": 3744,
      "xr": 3745,
      "xt": 3746,
      "xkF": 3747,
      "xxf": 3748,
      "ya": 3749,
      "ys": 3750,
      "yu": 3751,
      "yy": 3752,
      "zM": 3753,
      "zd": 3754,
      "zh": 3755,
      "zi": 3756,
      "zo": 3757,
      "{$": 3758,
      "{]": 3759,
      "{ãĢģ": 3760,
      "|-": 3761,
      "|.": 3762,
      "|:": 3763,
      "|[": 3764,
      "|]": 3765,
      "|âĢĿ": 3766,
      "|âĢĻ": 3767,
      "}\"": 3768,
      "},": 3769,
      "}.": 3770,
      "}:": 3771,
      "}<": 3772,
      "}ãĢĤ": 3773,
      "},âĢĿ": 3774,
      "}#;": 3775,
      "};*": 3776,
      "}|]": 3777,
      "Ġ<!": 3778,
      "Ġ<\"": 3779,
      "Ġ<(": 3780,
      "Ġ<)": 3781,
      "Ġ<*": 3782,
      "Ġ<,": 3783,
      "Ġ<-": 3784,
      "Ġ</": 3785,
      "Ġ<?": 3786,
      "Ġ<@": 3787,
      "Ġ<ãĢĲ": 3788,
      "Ġ<ãĢģ": 3789,
      "Ġ<âĢľ": 3790,
      "Ġ<ãĢĬ": 3791,
      "Ġ<âĢĿ": 3792,
      "Ġ<ãĢĭ": 3793,
      "Ġ<+<": 3794,
      "Ġ<%ãĢĬ": 3795,
      "Ġ<=*": 3796,
      "Ġ<>,": 3797,
      "ĠSB": 3798,
      "ĠSC": 3799,
      "ĠSF": 3800,
      "ĠSH": 3801,
      "ĠSI": 3802,
      "ĠSJ": 3803,
      "ĠSO": 3804,
      "ĠSP": 3805,
      "ĠSR": 3806,
      "ĠSV": 3807,
      "ĠSX": 3808,
      "ĠSZ": 3809,
      "ĠSa": 3810,
      "ĠSb": 3811,
      "ĠSi": 3812,
      "ĠSj": 3813,
      "ĠSq": 3814,
      "ĠSx": 3815,
      "ĠSy": 3816,
      "ĠSau": 3817,
      "ĠSDB": 3818,
      "ĠSEw": 3819,
      "ĠUM": 3820,
      "ĠUT": 3821,
      "ĠUU": 3822,
      "ĠUa": 3823,
      "ĠUe": 3824,
      "ĠUg": 3825,
      "ĠUh": 3826,
      "ĠUq": 3827,
      "ĠUs": 3828,
      "ĠUw": 3829,
      "ĠUIo": 3830,
      "ĠUOW": 3831,
      "ĠUiIs": 3832,
      "ĠUzd": 3833,
      "ĠPE": 3834,
      "ĠPF": 3835,
      "ĠPJ": 3836,
      "ĠPN": 3837,
      "ĠPO": 3838,
      "ĠPS": 3839,
      "ĠPU": 3840,
      "ĠPc": 3841,
      "ĠPd": 3842,
      "ĠPf": 3843,
      "ĠPl": 3844,
      "ĠPn": 3845,
      "ĠPp": 3846,
      "ĠPs": 3847,
      "ĠPv": 3848,
      "ĠPw": 3849,
      "ĠPz": 3850,
      "ĠPQI": 3851,
      "ĠPVl": 3852,
      "ĠPYQ": 3853,
      "ĠPbB": 3854,
      "ĠEA": 3855,
      "ĠEC": 3856,
      "ĠEF": 3857,
      "ĠEL": 3858,
      "ĠEM": 3859,
      "ĠET": 3860,
      "ĠEV": 3861,
      "ĠEY": 3862,
      "ĠEZ": 3863,
      "ĠEb": 3864,
      "ĠEd": 3865,
      "ĠEi": 3866,
      "ĠEm": 3867,
      "ĠEr": 3868,
      "ĠEt": 3869,
      "ĠEx": 3870,
      "ĠEJh": 3871,
      "ĠEFn": 3872,
      "ĠEMj": 3873,
      "ĠEaL": 3874,
      "Ġ:\"": 3875,
      "Ġ:'": 3876,
      "Ġ:,": 3877,
      "Ġ:\\": 3878,
      "Ġ:|": 3879,
      "Ġ:âĤ¬": 3880,
      "Ġ:ãĢĲ": 3881,
      "Ġ:âĢľ": 3882,
      "Ġ:âĢĺ": 3883,
      "Ġ:ãĢĤ": 3884,
      "Ġ:Â¥": 3885,
      "Ġ:)<": 3886,
      "Ġ:{âĢĿ": 3887,
      "Ġ:$[": 3888,
      "Ġ:>âĢľ": 3889,
      "Ġ:]ãĢĬ": 3890,
      "Ġ;\"": 3891,
      "Ġ;#": 3892,
      "Ġ;$": 3893,
      "Ġ;'": 3894,
      "Ġ;)": 3895,
      "Ġ;*": 3896,
      "Ġ;-": 3897,
      "Ġ;.": 3898,
      "Ġ;[": 3899,
      "Ġ;\\": 3900,
      "Ġ;{": 3901,
      "Ġ;|": 3902,
      "Ġ;âĤ¬": 3903,
      "Ġ;âĢľ": 3904,
      "Ġ;ãĢĬ": 3905,
      "Ġ;âĢĻ": 3906,
      "Ġ;ãĢĤ": 3907,
      "Ġ;Â¥": 3908,
      "Ġ;ãĢĭ": 3909,
      "Ġ;%[": 3910,
      "Ġ,\"": 3911,
      "Ġ,#": 3912,
      "Ġ,-": 3913,
      "Ġ,\\": 3914,
      "Ġ,]": 3915,
      "Ġ,âĢľ": 3916,
      "Ġ,âĢĻ": 3917,
      "Ġ,ãĢĳ": 3918,
      "Ġ,ãĢĤ": 3919,
      "Ġ,Â¥": 3920,
      "Ġ,#<": 3921,
      "Ġ,^[": 3922,
      "Ġ,('": 3923,
      "Ġ,/^": 3924,
      "Ġ,>+;": 3925,
      "Ġ)\"": 3926,
      "Ġ)$": 3927,
      "Ġ))": 3928,
      "Ġ)+": 3929,
      "Ġ)=": 3930,
      "Ġ)ãĢĲ": 3931,
      "Ġ)Â£": 3932,
      "Ġ)âĢĻ": 3933,
      "Ġ)Â¥": 3934,
      "Ġ)(:": 3935,
      "Ġ)'-": 3936,
      "Ġ)>ãĢģ": 3937,
      "Ġ(!": 3938,
      "Ġ(\"": 3939,
      "Ġ(*": 3940,
      "Ġ(.": 3941,
      "Ġ(>": 3942,
      "Ġ(âĤ¬": 3943,
      "Ġ(ãĢĲ": 3944,
      "Ġ(ãĢģ": 3945,
      "Ġ(âĢľ": 3946,
      "Ġ(ãĢĬ": 3947,
      "Ġ(âĢĻ": 3948,
      "Ġ(ãĢĳ": 3949,
      "Ġ(ãĢĤ": 3950,
      "Ġ(ãĢĭ": 3951,
      "Ġ()<": 3952,
      "Ġ(?<": 3953,
      "Ġ(ãĢģâĢĻ": 3954,
      "Ġ(Â¥<": 3955,
      "Ġ(?âĢĻ": 3956,
      "Ġ(?);": 3957,
      "Ġ(}<": 3958,
      "Ġ!!": 3959,
      "Ġ!%": 3960,
      "Ġ!+": 3961,
      "Ġ!^": 3962,
      "Ġ!|": 3963,
      "Ġ!}": 3964,
      "Ġ!âĢĿ": 3965,
      "Ġ!âĢĻ": 3966,
      "Ġ!';": 3967,
      "Ġ!*|": 3968,
      "Ġ!\\âĢĿ": 3969,
      "Ġ?$": 3970,
      "Ġ?)": 3971,
      "Ġ?/": 3972,
      "Ġ?;": 3973,
      "Ġ?>": 3974,
      "Ġ?{": 3975,
      "Ġ?ãĢĲ": 3976,
      "Ġ?ãĢģ": 3977,
      "Ġ?âĢĺ": 3978,
      "Ġ?âĢĿ": 3979,
      "Ġ?Â£": 3980,
      "Ġ?ãĢĤ": 3981,
      "Ġ?Â¥": 3982,
      "Ġ?|<": 3983,
      "Ġ?%!<": 3984,
      "Ġ?|âĢĿ": 3985,
      "âĤ¬ãĢĲ": 3986,
      "âĤ¬ãĢĳ": 3987,
      "âĤ¬ãĢģâĢĻ": 3988,
      "ĠdA": 3989,
      "ĠdB": 3990,
      "ĠdI": 3991,
      "ĠdJ": 3992,
      "ĠdL": 3993,
      "ĠdO": 3994,
      "ĠdT": 3995,
      "ĠdW": 3996,
      "Ġda": 3997,
      "Ġdb": 3998,
      "Ġdc": 3999,
      "Ġdd": 4000,
      "Ġde": 4001,
      "Ġdi": 4002,
      "Ġdo": 4003,
      "Ġdq": 4004,
      "ĠdDy": 4005,
      "ĠdXy": 4006,
      "ĠdZS": 4007,
      "ĠdkO": 4008,
      "Ġdya": 4009,
      "ĠJB": 4010,
      "ĠJF": 4011,
      "ĠJM": 4012,
      "ĠJN": 4013,
      "ĠJQ": 4014,
      "ĠJa": 4015,
      "ĠJg": 4016,
      "ĠJh": 4017,
      "ĠJn": 4018,
      "ĠJp": 4019,
      "ĠJq": 4020,
      "ĠJu": 4021,
      "ĠJKB": 4022,
      "ĠJVs": 4023,
      "ĠJcCt": 4024,
      "ĠGB": 4025,
      "ĠGG": 4026,
      "ĠGH": 4027,
      "ĠGI": 4028,
      "ĠGO": 4029,
      "ĠGU": 4030,
      "ĠGV": 4031,
      "ĠGZ": 4032,
      "ĠGb": 4033,
      "ĠGi": 4034,
      "ĠGl": 4035,
      "ĠGn": 4036,
      "ĠGs": 4037,
      "ĠGy": 4038,
      "ĠGDf": 4039,
      "ĠGNL": 4040,
      "ĠGWs": 4041,
      "ĠGePf": 4042,
      "ĠGgP": 4043,
      "ĠGtF": 4044,
      "ĠGua": 4045,
      "ĠGwG": 4046,
      "ĠGxkF": 4047,
      "ĠDB": 4048,
      "ĠDM": 4049,
      "ĠDN": 4050,
      "ĠDP": 4051,
      "ĠDW": 4052,
      "ĠDZ": 4053,
      "ĠDi": 4054,
      "ĠDk": 4055,
      "ĠDm": 4056,
      "ĠDs": 4057,
      "ĠDt": 4058,
      "ĠDu": 4059,
      "ĠDy": 4060,
      "ĠDz": 4061,
      "ĠDQX": 4062,
      "ĠDTz": 4063,
      "ĠDUA": 4064,
      "ĠDdK": 4065,
      "ĠDgd": 4066,
      "ĠDnx": 4067,
      "ĠYB": 4068,
      "ĠYK": 4069,
      "ĠYS": 4070,
      "ĠYV": 4071,
      "ĠYY": 4072,
      "ĠYa": 4073,
      "ĠYc": 4074,
      "ĠYf": 4075,
      "ĠYk": 4076,
      "ĠYr": 4077,
      "ĠYw": 4078,
      "ĠYx": 4079,
      "ĠYy": 4080,
      "ĠYQo": 4081,
      "ĠYex": 4082,
      "ĠYuNu": 4083,
      "ĠfB": 4084,
      "ĠfC": 4085,
      "ĠfI": 4086,
      "ĠfJ": 4087,
      "ĠfM": 4088,
      "ĠfQ": 4089,
      "ĠfR": 4090,
      "ĠfS": 4091,
      "ĠfU": 4092,
      "ĠfV": 4093,
      "Ġfh": 4094,
      "Ġfj": 4095,
      "Ġfn": 4096,
      "Ġfr": 4097,
      "ĠfAs": 4098,
      "ĠfFz": 4099,
      "Ġfkh": 4100,
      "Ġfpw": 4101,
      "ĠâĤ¬!": 4102,
      "ĠâĤ¬-": 4103,
      "ĠâĤ¬;": 4104,
      "ĠâĤ¬=": 4105,
      "ĠâĤ¬\\": 4106,
      "ĠâĤ¬^": 4107,
      "ĠâĤ¬âĢľ": 4108,
      "ĠâĤ¬âĢĺ": 4109,
      "ĠâĤ¬ãĢĤ": 4110,
      "ĠâĤ¬*Â£": 4111,
      "ĠâĤ¬Â¥<": 4112,
      "ĠâĤ¬$/": 4113,
      "ĠâĤ¬,Â¥": 4114,
      "ĠâĤ¬=<": 4115,
      "ĠâĤ¬&.": 4116,
      "ĠMG": 4117,
      "ĠMH": 4118,
      "ĠMN": 4119,
      "ĠMT": 4120,
      "ĠMW": 4121,
      "ĠMY": 4122,
      "ĠMZ": 4123,
      "ĠMa": 4124,
      "ĠMAY": 4125,
      "ĠMLP": 4126,
      "ĠMxG": 4127,
      "ĠãĢĲ\"": 4128,
      "ĠãĢĲ/": 4129,
      "ĠãĢĲ:": 4130,
      "ĠãĢĲ>": 4131,
      "ĠãĢĲ?": 4132,
      "ĠãĢĲ@": 4133,
      "ĠãĢĲ[": 4134,
      "ĠãĢĲÂ£": 4135,
      "ĠãĢĲãĢĳ": 4136,
      "ĠãĢĲãĢĤ": 4137,
      "ĠãĢĲÂ¥": 4138,
      "ĠãĢĲãĢĭ": 4139,
      "ĠãĢĲ!<": 4140,
      "ĠãĢĲ?<": 4141,
      "Ġ70": 4142,
      "Ġ72": 4143,
      "Ġ78": 4144,
      "ĠVA": 4145,
      "ĠVB": 4146,
      "ĠVE": 4147,
      "ĠVF": 4148,
      "ĠVG": 4149,
      "ĠVI": 4150,
      "ĠVJ": 4151,
      "ĠVP": 4152,
      "ĠVR": 4153,
      "ĠVV": 4154,
      "ĠVY": 4155,
      "ĠVZ": 4156,
      "ĠVa": 4157,
      "ĠVd": 4158,
      "ĠVl": 4159,
      "ĠVn": 4160,
      "ĠVp": 4161,
      "ĠVq": 4162,
      "ĠVs": 4163,
      "ĠVy": 4164,
      "ĠVJE": 4165,
      "ĠViN": 4166,
      "ĠVuA": 4167,
      "ĠVxR": 4168,
      "Ġ\\!": 4169,
      "Ġ\\%": 4170,
      "Ġ\\&": 4171,
      "Ġ\\'": 4172,
      "Ġ\\+": 4173,
      "Ġ\\.": 4174,
      "Ġ\\=": 4175,
      "Ġ\\>": 4176,
      "Ġ\\@": 4177,
      "Ġ\\[": 4178,
      "Ġ\\\\": 4179,
      "Ġ\\]": 4180,
      "Ġ\\ãĢĲ": 4181,
      "Ġ\\ãĢĳ": 4182,
      "Ġ\\Â¥": 4183,
      "Ġ\\?âĢľ": 4184,
      "Ġ\\\"]": 4185,
      "Ġ\\^*%": 4186,
      "Ġ\\{]": 4187,
      "ĠTF": 4188,
      "ĠTG": 4189,
      "ĠTJ": 4190,
      "ĠTK": 4191,
      "ĠTR": 4192,
      "ĠTU": 4193,
      "ĠTW": 4194,
      "ĠTX": 4195,
      "ĠTf": 4196,
      "ĠTi": 4197,
      "ĠTj": 4198,
      "ĠTl": 4199,
      "ĠTn": 4200,
      "ĠTp": 4201,
      "ĠTq": 4202,
      "ĠTr": 4203,
      "ĠTs": 4204,
      "ĠTv": 4205,
      "ĠTw": 4206,
      "ĠTx": 4207,
      "ĠTcs": 4208,
      "ĠTMm": 4209,
      "ĠTZUo": 4210,
      "ĠTmm": 4211,
      "ĠTzM": 4212,
      "ĠãĢĳ(": 4213,
      "ĠãĢĳ+": 4214,
      "ĠãĢĳ[": 4215,
      "ĠãĢĳ\\": 4216,
      "ĠãĢĳ^": 4217,
      "ĠãĢĳãĢģ": 4218,
      "ĠãĢĳâĢľ": 4219,
      "ĠãĢĳãĢĬ": 4220,
      "ĠãĢĳâĢĿ": 4221,
      "ĠãĢĳ!)": 4222,
      "ĠãĢĳ,|": 4223,
      "ĠãĢĳ?Â£": 4224,
      "ĠãĢĳ|âĢĻ": 4225,
      "ĠAG": 4226,
      "ĠAI": 4227,
      "ĠAK": 4228,
      "ĠAO": 4229,
      "ĠAQ": 4230,
      "ĠAW": 4231,
      "ĠAX": 4232,
      "ĠAZ": 4233,
      "ĠAc": 4234,
      "ĠAf": 4235,
      "ĠAg": 4236,
      "ĠAn": 4237,
      "ĠAq": 4238,
      "ĠAs": 4239,
      "ĠAJh": 4240,
      "ĠAjf": 4241,
      "ĠASb": 4242,
      "ĠAeL": 4243,
      "ĠAlg": 4244,
      "ĠAogU": 4245,
      "ĠAuZ": 4246,
      "ĠAys": 4247,
      "ĠÂ£#": 4248,
      "ĠÂ£&": 4249,
      "ĠÂ£/": 4250,
      "ĠÂ£]": 4251,
      "ĠÂ£âĤ¬": 4252,
      "ĠÂ£âĢĺ": 4253,
      "ĠÂ£ãĢĬ": 4254,
      "ĠÂ£âĢĿ": 4255,
      "ĠÂ£âĢĻ": 4256,
      "ĠÂ£ãĢĳ": 4257,
      "ĠÂ£$\")": 4258,
      "ĠÂ£)/": 4259,
      "ĠÂ£\\ãĢĭ": 4260,
      "Ġ=!": 4261,
      "Ġ=#": 4262,
      "Ġ=(": 4263,
      "Ġ=>": 4264,
      "Ġ=?": 4265,
      "Ġ=]": 4266,
      "Ġ={": 4267,
      "Ġ=ãĢĲ": 4268,
      "Ġ=ãĢĬ": 4269,
      "Ġ=âĢĿ": 4270,
      "Ġ=Â£": 4271,
      "Ġ=ãĢĤ": 4272,
      "ĠsA": 4273,
      "ĠsD": 4274,
      "ĠsE": 4275,
      "ĠsF": 4276,
      "ĠsJ": 4277,
      "ĠsK": 4278,
      "ĠsN": 4279,
      "ĠsS": 4280,
      "ĠsV": 4281,
      "ĠsZ": 4282,
      "Ġsa": 4283,
      "Ġsc": 4284,
      "Ġsf": 4285,
      "Ġsg": 4286,
      "Ġsu": 4287,
      "Ġsx": 4288,
      "Ġsnf": 4289,
      "Ġ\"#": 4290,
      "Ġ\"'": 4291,
      "Ġ\"*": 4292,
      "Ġ\"+": 4293,
      "Ġ\":": 4294,
      "Ġ\">": 4295,
      "Ġ\"?": 4296,
      "Ġ\"]": 4297,
      "Ġ\"ãĢģ": 4298,
      "Ġ\"âĢľ": 4299,
      "Ġ\"ãĢĬ": 4300,
      "Ġ\"âĢĿ": 4301,
      "Ġ\"ãĢĳ": 4302,
      "Ġ\"ãĢĤ": 4303,
      "Ġ\"Â¥": 4304,
      "Ġ\"ãĢĭ": 4305,
      "Ġ\",<": 4306,
      "Ġ\"âĤ¬)": 4307,
      "Ġ\"}\"": 4308,
      "Ġ00": 4309,
      "Ġ04": 4310,
      "Ġ07": 4311,
      "ĠLA": 4312,
      "ĠLG": 4313,
      "ĠLI": 4314,
      "ĠLJ": 4315,
      "ĠLL": 4316,
      "ĠLR": 4317,
      "ĠLT": 4318,
      "ĠLe": 4319,
      "ĠLg": 4320,
      "ĠLq": 4321,
      "ĠLv": 4322,
      "ĠLSw": 4323,
      "ĠLdB": 4324,
      "ĠLuem": 4325,
      "ĠZB": 4326,
      "ĠZD": 4327,
      "ĠZI": 4328,
      "ĠZM": 4329,
      "ĠZQ": 4330,
      "ĠZc": 4331,
      "ĠZd": 4332,
      "ĠZf": 4333,
      "ĠZp": 4334,
      "ĠZq": 4335,
      "ĠZs": 4336,
      "ĠZu": 4337,
      "ĠZkK": 4338,
      "ĠZSN": 4339,
      "ĠZiF": 4340,
      "ĠZmIx": 4341,
      "ĠZwB": 4342,
      "ĠqB": 4343,
      "ĠqC": 4344,
      "ĠqD": 4345,
      "ĠqG": 4346,
      "ĠqL": 4347,
      "ĠqP": 4348,
      "ĠqU": 4349,
      "ĠqY": 4350,
      "Ġqc": 4351,
      "Ġqf": 4352,
      "Ġqg": 4353,
      "Ġqn": 4354,
      "Ġqq": 4355,
      "Ġqs": 4356,
      "Ġqt": 4357,
      "Ġqx": 4358,
      "Ġqy": 4359,
      "ĠqMU": 4360,
      "ĠqOV": 4361,
      "ĠqVp": 4362,
      "Ġqvr": 4363,
      "ĠFA": 4364,
      "ĠFB": 4365,
      "ĠFF": 4366,
      "ĠFG": 4367,
      "ĠFH": 4368,
      "ĠFK": 4369,
      "ĠFL": 4370,
      "ĠFR": 4371,
      "ĠFY": 4372,
      "ĠFZ": 4373,
      "ĠFd": 4374,
      "ĠFh": 4375,
      "ĠFi": 4376,
      "ĠFp": 4377,
      "ĠFq": 4378,
      "ĠFy": 4379,
      "ĠFGC": 4380,
      "ĠFTj": 4381,
      "ĠFmG": 4382,
      "ĠFrE": 4383,
      "ĠlJ": 4384,
      "ĠlQ": 4385,
      "ĠlT": 4386,
      "ĠlZ": 4387,
      "Ġlc": 4388,
      "Ġle": 4389,
      "Ġlf": 4390,
      "Ġln": 4391,
      "Ġlp": 4392,
      "Ġlq": 4393,
      "Ġls": 4394,
      "Ġlt": 4395,
      "Ġlu": 4396,
      "Ġlbi": 4397,
      "ĠlDS": 4398,
      "ĠlGc": 4399,
      "ĠllL": 4400,
      "Ġ}&": 4401,
      "Ġ}@": 4402,
      "Ġ}\\": 4403,
      "Ġ}âĤ¬": 4404,
      "Ġ}ãĢģ": 4405,
      "Ġ}âĢĻ": 4406,
      "Ġ}ãĢĳ": 4407,
      "Ġ}((ãĢĲ": 4408,
      "Ġ}:^": 4409,
      "Ġ}>!-": 4410,
      "Ġ.\"": 4411,
      "Ġ.&": 4412,
      "Ġ.'": 4413,
      "Ġ.+": 4414,
      "Ġ.,": 4415,
      "Ġ.-": 4416,
      "Ġ.?": 4417,
      "Ġ.ãĢĲ": 4418,
      "Ġ.ãĢģ": 4419,
      "Ġ.âĢľ": 4420,
      "Ġ.Â£": 4421,
      "Ġ.ãĢĳ": 4422,
      "Ġ.!-": 4423,
      "Ġ.\"ãĢĲ": 4424,
      "Ġ.+:": 4425,
      "Ġ.)ãĢĭ": 4426,
      "Ġ.*(": 4427,
      "Ġ.;?": 4428,
      "Ġ.}:": 4429,
      "ĠrH": 4430,
      "ĠrK": 4431,
      "ĠrP": 4432,
      "ĠrQ": 4433,
      "ĠrT": 4434,
      "ĠrX": 4435,
      "ĠrY": 4436,
      "Ġrd": 4437,
      "Ġrj": 4438,
      "Ġrm": 4439,
      "Ġrn": 4440,
      "Ġro": 4441,
      "Ġrp": 4442,
      "Ġrr": 4443,
      "Ġrt": 4444,
      "Ġrcs": 4445,
      "ĠrCm": 4446,
      "ĠrNj": 4447,
      "ĠrOX": 4448,
      "ĠrVK": 4449,
      "ĠrsF": 4450,
      "ĠrwV": 4451,
      "Ġrzi": 4452,
      "ĠWM": 4453,
      "ĠWR": 4454,
      "ĠWS": 4455,
      "ĠWa": 4456,
      "ĠWf": 4457,
      "ĠWh": 4458,
      "ĠWt": 4459,
      "ĠWx": 4460,
      "ĠWy": 4461,
      "ĠWVm": 4462,
      "ĠWES": 4463,
      "ĠnH": 4464,
      "ĠnI": 4465,
      "ĠnL": 4466,
      "ĠnS": 4467,
      "ĠnU": 4468,
      "ĠnX": 4469,
      "ĠnY": 4470,
      "ĠnZ": 4471,
      "Ġnb": 4472,
      "Ġnh": 4473,
      "Ġnv": 4474,
      "Ġ*\"": 4475,
      "Ġ*+": 4476,
      "Ġ*,": 4477,
      "Ġ*-": 4478,
      "Ġ*?": 4479,
      "Ġ*[": 4480,
      "Ġ*^": 4481,
      "Ġ*}": 4482,
      "Ġ*âĤ¬": 4483,
      "Ġ*ãĢĲ": 4484,
      "Ġ*ãĢĤ": 4485,
      "Ġ*[<": 4486,
      "Ġ*=+": 4487,
      "Ġ@\"": 4488,
      "Ġ@#": 4489,
      "Ġ@%": 4490,
      "Ġ@&": 4491,
      "Ġ@-": 4492,
      "Ġ@:": 4493,
      "Ġ@\\": 4494,
      "Ġ@âĢľ": 4495,
      "Ġ@âĢĺ": 4496,
      "Ġ@âĢĿ": 4497,
      "Ġ@ãĢĭ": 4498,
      "Ġ@&;": 4499,
      "Ġ@%/": 4500,
      "Ġ@'ãĢĤ": 4501,
      "Ġ@(:": 4502,
      "Ġ@;]": 4503,
      "Ġ@{$": 4504,
      "ĠaA": 4505,
      "ĠaF": 4506,
      "ĠaG": 4507,
      "ĠaN": 4508,
      "ĠaQ": 4509,
      "ĠaT": 4510,
      "ĠaU": 4511,
      "ĠaY": 4512,
      "Ġad": 4513,
      "Ġae": 4514,
      "Ġaf": 4515,
      "Ġaj": 4516,
      "Ġak": 4517,
      "Ġaq": 4518,
      "Ġas": 4519,
      "Ġay": 4520,
      "Ġaz": 4521,
      "ĠaCP": 4522,
      "ĠaMBG": 4523,
      "Ġalw": 4524,
      "ĠanM": 4525,
      "Ġaxt": 4526,
      "ĠjD": 4527,
      "ĠjE": 4528,
      "ĠjG": 4529,
      "ĠjH": 4530,
      "ĠjX": 4531,
      "ĠjZ": 4532,
      "Ġjh": 4533,
      "Ġjl": 4534,
      "Ġjq": 4535,
      "Ġjt": 4536,
      "Ġjw": 4537,
      "Ġjx": 4538,
      "Ġjy": 4539,
      "ĠãĢģ!": 4540,
      "ĠãĢģ$": 4541,
      "ĠãĢģ&": 4542,
      "ĠãĢģ+": 4543,
      "ĠãĢģ=": 4544,
      "ĠãĢģ?": 4545,
      "ĠãĢģ\\": 4546,
      "ĠãĢģâĢľ": 4547,
      "ĠãĢģãĢĬ": 4548,
      "ĠãĢģ$ãĢĤ": 4549,
      "ĠãĢĤ!": 4550,
      "ĠãĢĤ#": 4551,
      "ĠãĢĤ%": 4552,
      "ĠãĢĤ*": 4553,
      "ĠãĢĤ:": 4554,
      "ĠãĢĤ=": 4555,
      "ĠãĢĤ?": 4556,
      "ĠãĢĤ\\": 4557,
      "ĠãĢĤ}": 4558,
      "ĠãĢĤãĢĲ": 4559,
      "ĠãĢĤãĢģ": 4560,
      "ĠãĢĤÂ£": 4561,
      "ĠãĢĤ|<": 4562,
      "ĠãĢĤâĤ¬)": 4563,
      "ĠãĢĤ;{": 4564,
      "ĠãĢĤ>$": 4565,
      "ĠâĢĻ#": 4566,
      "ĠâĢĻ'": 4567,
      "ĠâĢĻ)": 4568,
      "ĠâĢĻ;": 4569,
      "ĠâĢĻ=": 4570,
      "ĠâĢĻ?": 4571,
      "ĠâĢĻ]": 4572,
      "ĠâĢĻ}": 4573,
      "ĠâĢĻãĢĲ": 4574,
      "ĠâĢĻâĢĺ": 4575,
      "ĠâĢĻ)(": 4576,
      "ĠâĢĻ=.": 4577,
      "ĠâĢĻ?âĢĻ": 4578,
      "ĠâĢĻÂ¥Â¥": 4579,
      "ĠâĢĻ%^": 4580,
      "ĠâĢĻ@{": 4581,
      "ĠâĢĻ|.": 4582,
      "ĠpA": 4583,
      "ĠpF": 4584,
      "ĠpK": 4585,
      "ĠpP": 4586,
      "ĠpR": 4587,
      "ĠpW": 4588,
      "Ġpb": 4589,
      "Ġpf": 4590,
      "Ġph": 4591,
      "Ġpk": 4592,
      "Ġpn": 4593,
      "Ġpp": 4594,
      "Ġpt": 4595,
      "Ġpw": 4596,
      "Ġpx": 4597,
      "Ġpy": 4598,
      "ĠpSh": 4599,
      "Ġ40": 4600,
      "Ġ41": 4601,
      "Ġ45": 4602,
      "Ġ49": 4603,
      "Ġ57": 4604,
      "ĠKB": 4605,
      "ĠKC": 4606,
      "ĠKD": 4607,
      "ĠKE": 4608,
      "ĠKG": 4609,
      "ĠKH": 4610,
      "ĠKN": 4611,
      "ĠKO": 4612,
      "ĠKP": 4613,
      "ĠKR": 4614,
      "ĠKU": 4615,
      "ĠKb": 4616,
      "ĠKc": 4617,
      "ĠKe": 4618,
      "ĠKi": 4619,
      "ĠKj": 4620,
      "ĠKu": 4621,
      "ĠKy": 4622,
      "ĠKYU": 4623,
      "ĠKav": 4624,
      "ĠKfv": 4625,
      "ĠKzo": 4626,
      "ĠtA": 4627,
      "ĠtG": 4628,
      "ĠtK": 4629,
      "ĠtL": 4630,
      "Ġtp": 4631,
      "Ġtq": 4632,
      "Ġts": 4633,
      "Ġty": 4634,
      "ĠtQS": 4635,
      "ĠtUM": 4636,
      "ĠtcA": 4637,
      "ĠtjZ": 4638,
      "ĠgE": 4639,
      "ĠgL": 4640,
      "ĠgR": 4641,
      "ĠgU": 4642,
      "Ġgc": 4643,
      "Ġgd": 4644,
      "Ġge": 4645,
      "Ġgf": 4646,
      "Ġgi": 4647,
      "Ġgr": 4648,
      "Ġgs": 4649,
      "Ġgu": 4650,
      "Ġgv": 4651,
      "Ġgw": 4652,
      "ĠgNx": 4653,
      "ĠgWTP": 4654,
      "ĠxD": 4655,
      "ĠxI": 4656,
      "ĠxN": 4657,
      "ĠxO": 4658,
      "Ġxb": 4659,
      "Ġxd": 4660,
      "Ġxe": 4661,
      "Ġxf": 4662,
      "Ġxn": 4663,
      "Ġxp": 4664,
      "Ġxv": 4665,
      "Ġxw": 4666,
      "Ġxx": 4667,
      "Ġxy": 4668,
      "ĠxkK": 4669,
      "ĠxFL": 4670,
      "ĠxMI": 4671,
      "ĠxrX": 4672,
      "ĠâĢĺ!": 4673,
      "ĠâĢĺ(": 4674,
      "ĠâĢĺ)": 4675,
      "ĠâĢĺ,": 4676,
      "ĠâĢĺ^": 4677,
      "ĠâĢĺ{": 4678,
      "ĠâĢĺ|": 4679,
      "ĠâĢĺãĢĤ": 4680,
      "ĠâĢĺ?&": 4681,
      "Ġ61": 4682,
      "Ġ62": 4683,
      "Ġ64": 4684,
      "Ġ23": 4685,
      "Ġ27": 4686,
      "ĠNB": 4687,
      "ĠNC": 4688,
      "ĠND": 4689,
      "ĠNF": 4690,
      "ĠNH": 4691,
      "ĠNQ": 4692,
      "ĠNX": 4693,
      "ĠNY": 4694,
      "ĠNg": 4695,
      "ĠNh": 4696,
      "ĠNk": 4697,
      "ĠNo": 4698,
      "ĠNr": 4699,
      "ĠNt": 4700,
      "ĠNu": 4701,
      "ĠNz": 4702,
      "ĠNJE": 4703,
      "ĠNAy": 4704,
      "ĠNsS": 4705,
      "ĠQC": 4706,
      "ĠQE": 4707,
      "ĠQM": 4708,
      "ĠQN": 4709,
      "ĠQR": 4710,
      "ĠQW": 4711,
      "ĠQl": 4712,
      "ĠQv": 4713,
      "ĠQHQ": 4714,
      "ĠQQi": 4715,
      "ĠQkT": 4716,
      "ĠQuE": 4717,
      "ĠQzh": 4718,
      "ĠcN": 4719,
      "ĠcO": 4720,
      "ĠcV": 4721,
      "ĠcX": 4722,
      "ĠcY": 4723,
      "ĠcZ": 4724,
      "Ġcf": 4725,
      "Ġci": 4726,
      "Ġcp": 4727,
      "Ġcu": 4728,
      "Ġcv": 4729,
      "Ġcw": 4730,
      "Ġcz": 4731,
      "ĠcRz": 4732,
      "Ġcdk": 4733,
      "ĠcqP": 4734,
      "ĠcrZ": 4735,
      "ĠXB": 4736,
      "ĠXC": 4737,
      "ĠXD": 4738,
      "ĠXH": 4739,
      "ĠXK": 4740,
      "ĠXS": 4741,
      "ĠXY": 4742,
      "ĠXb": 4743,
      "ĠXo": 4744,
      "ĠXt": 4745,
      "ĠXu": 4746,
      "ĠXv": 4747,
      "ĠXw": 4748,
      "ĠXz": 4749,
      "ĠXJh": 4750,
      "ĠXGC": 4751,
      "ĠXJN": 4752,
      "ĠuD": 4753,
      "ĠuK": 4754,
      "ĠuL": 4755,
      "ĠuM": 4756,
      "ĠuO": 4757,
      "ĠuP": 4758,
      "ĠuQ": 4759,
      "ĠuR": 4760,
      "ĠuS": 4761,
      "ĠuV": 4762,
      "ĠuX": 4763,
      "Ġua": 4764,
      "Ġuc": 4765,
      "Ġue": 4766,
      "Ġug": 4767,
      "Ġui": 4768,
      "Ġuj": 4769,
      "Ġuo": 4770,
      "Ġuv": 4771,
      "Ġux": 4772,
      "Ġuz": 4773,
      "ĠuSq": 4774,
      "ĠuBS": 4775,
      "ĠuuQ": 4776,
      "ĠvD": 4777,
      "ĠvG": 4778,
      "ĠvJ": 4779,
      "ĠvK": 4780,
      "ĠvU": 4781,
      "ĠvZ": 4782,
      "Ġvc": 4783,
      "Ġvd": 4784,
      "Ġve": 4785,
      "Ġvr": 4786,
      "ĠvIn": 4787,
      "ĠvNn": 4788,
      "ĠvXau": 4789,
      "ĠCA": 4790,
      "ĠCC": 4791,
      "ĠCE": 4792,
      "ĠCF": 4793,
      "ĠCG": 4794,
      "ĠCL": 4795,
      "ĠCS": 4796,
      "ĠCU": 4797,
      "ĠCV": 4798,
      "ĠCl": 4799,
      "ĠCn": 4800,
      "ĠCq": 4801,
      "ĠCr": 4802,
      "ĠCs": 4803,
      "ĠCt": 4804,
      "ĠCu": 4805,
      "ĠCkK": 4806,
      "ĠCCP": 4807,
      "ĠCYM": 4808,
      "ĠCIl": 4809,
      "ĠCMP": 4810,
      "ĠCWJx": 4811,
      "ĠCdC": 4812,
      "ĠâĢĿ$": 4813,
      "ĠâĢĿ,": 4814,
      "ĠâĢĿ/": 4815,
      "ĠâĢĿ?": 4816,
      "ĠâĢĿ\\": 4817,
      "ĠâĢĿ]": 4818,
      "ĠâĢĿ{": 4819,
      "ĠâĢĿ|": 4820,
      "ĠâĢĿãĢĲ": 4821,
      "ĠâĢĿãĢĬ": 4822,
      "ĠâĢĿÂ£": 4823,
      "ĠâĢĿãĢĭ": 4824,
      "ĠâĢĿ,<": 4825,
      "ĠâĢĿ'ãĢĭ": 4826,
      "ĠâĢĿ-<": 4827,
      "ĠâĢĿ&@": 4828,
      "Ġ10": 4829,
      "Ġ14": 4830,
      "Ġ31": 4831,
      "Ġ39": 4832,
      "ĠIA": 4833,
      "ĠIC": 4834,
      "ĠIE": 4835,
      "ĠIM": 4836,
      "ĠIQ": 4837,
      "ĠIS": 4838,
      "ĠIT": 4839,
      "ĠIU": 4840,
      "ĠIW": 4841,
      "ĠIb": 4842,
      "ĠId": 4843,
      "ĠIu": 4844,
      "ĠIFn": 4845,
      "Ġ/#": 4846,
      "Ġ/$": 4847,
      "Ġ/&": 4848,
      "Ġ/'": 4849,
      "Ġ/-": 4850,
      "Ġ/|": 4851,
      "Ġ/ãĢģ": 4852,
      "Ġ/âĢĺ": 4853,
      "Ġ/âĢĿ": 4854,
      "Ġ/âĢĻ": 4855,
      "Ġ/ãĢĳ": 4856,
      "Ġ/Â¥": 4857,
      "Ġ/ãĢĭ": 4858,
      "Ġ/{âĢĿ": 4859,
      "Ġ/,*": 4860,
      "Ġ/><": 4861,
      "ĠRA": 4862,
      "ĠRB": 4863,
      "ĠRE": 4864,
      "ĠRR": 4865,
      "ĠRS": 4866,
      "ĠRY": 4867,
      "ĠRj": 4868,
      "ĠRk": 4869,
      "ĠRq": 4870,
      "ĠRu": 4871,
      "ĠRw": 4872,
      "ĠRGMU": 4873,
      "ĠRIT": 4874,
      "ĠRMk": 4875,
      "ĠRTBt": 4876,
      "ĠRaU": 4877,
      "ĠRgXH": 4878,
      "Ġ'-": 4879,
      "Ġ'<": 4880,
      "Ġ']": 4881,
      "Ġ'^": 4882,
      "Ġ'|": 4883,
      "Ġ'}": 4884,
      "Ġ'ãĢĲ": 4885,
      "Ġ'âĢĺ": 4886,
      "Ġ'âĢĿ": 4887,
      "Ġ'ãĢĤ": 4888,
      "Ġ''ãĢĭ": 4889,
      "Ġ'/Â£": 4890,
      "ĠâĢľ%": 4891,
      "ĠâĢľ'": 4892,
      "ĠâĢľ*": 4893,
      "ĠâĢľ-": 4894,
      "ĠâĢľ/": 4895,
      "ĠâĢľ:": 4896,
      "ĠâĢľ}": 4897,
      "ĠâĢľâĤ¬": 4898,
      "ĠâĢľÂ£": 4899,
      "ĠâĢľâĢĻ": 4900,
      "ĠâĢľãĢĭ": 4901,
      "ĠâĢľ#ãĢĬ": 4902,
      "ĠâĢľ)}": 4903,
      "ĠâĢľ=%": 4904,
      "ĠâĢľ@;": 4905,
      "ĠkE": 4906,
      "ĠkG": 4907,
      "ĠkH": 4908,
      "ĠkJ": 4909,
      "ĠkO": 4910,
      "ĠkP": 4911,
      "ĠkT": 4912,
      "Ġka": 4913,
      "Ġkb": 4914,
      "Ġke": 4915,
      "Ġkf": 4916,
      "Ġkt": 4917,
      "ĠkIK": 4918,
      "ĠkMQo": 4919,
      "ĠkNE": 4920,
      "ĠkRY": 4921,
      "Ġkwi": 4922,
      "ĠoD": 4923,
      "ĠoE": 4924,
      "ĠoH": 4925,
      "ĠoK": 4926,
      "ĠoQ": 4927,
      "ĠoT": 4928,
      "ĠoV": 4929,
      "ĠoY": 4930,
      "ĠoZ": 4931,
      "Ġoa": 4932,
      "Ġoc": 4933,
      "Ġod": 4934,
      "Ġoi": 4935,
      "Ġoj": 4936,
      "Ġol": 4937,
      "Ġot": 4938,
      "Ġov": 4939,
      "Ġoz": 4940,
      "Ġojf": 4941,
      "ĠoMz": 4942,
      "ĠowX": 4943,
      "Ġ$$": 4944,
      "Ġ$&": 4945,
      "Ġ$+": 4946,
      "Ġ$:": 4947,
      "Ġ$<": 4948,
      "Ġ$>": 4949,
      "Ġ$?": 4950,
      "Ġ$âĤ¬": 4951,
      "Ġ$ãĢģ": 4952,
      "Ġ$âĢĿ": 4953,
      "Ġ$.^": 4954,
      "Ġ&%": 4955,
      "Ġ&'": 4956,
      "Ġ&(": 4957,
      "Ġ&:": 4958,
      "Ġ&}": 4959,
      "Ġ&ãĢģ": 4960,
      "Ġ&âĢľ": 4961,
      "Ġ&ãĢĳ": 4962,
      "Ġ&$,": 4963,
      "Ġ&[|": 4964,
      "Ġ+!": 4965,
      "Ġ+#": 4966,
      "Ġ+$": 4967,
      "Ġ+(": 4968,
      "Ġ++": 4969,
      "Ġ+;": 4970,
      "Ġ+=": 4971,
      "Ġ+\\": 4972,
      "Ġ+^": 4973,
      "Ġ+ãĢĲ": 4974,
      "Ġ+âĢľ": 4975,
      "Ġ+âĢĺ": 4976,
      "Ġ+ãĢĬ": 4977,
      "Ġ+Â£": 4978,
      "Ġ+:Â¥": 4979,
      "Ġ+\"&": 4980,
      "Ġ+âĤ¬ãĢĳ": 4981,
      "Ġ]'": 4982,
      "Ġ]*": 4983,
      "Ġ],": 4984,
      "Ġ].": 4985,
      "Ġ]<": 4986,
      "Ġ]?": 4987,
      "Ġ]|": 4988,
      "Ġ]ãĢģ": 4989,
      "Ġ]âĢľ": 4990,
      "Ġ]ãĢĬ": 4991,
      "Ġ]ãĢĳ": 4992,
      "Ġ]ãĢĤ": 4993,
      "Ġ]+&": 4994,
      "Ġ]Â¥<": 4995,
      "Ġ]@)": 4996,
      "Ġ]}ãĢĤ": 4997,
      "ĠbA": 4998,
      "ĠbB": 4999,
      "ĠbD": 5000,
      "ĠbF": 5001,
      "ĠbG": 5002,
      "ĠbI": 5003,
      "ĠbK": 5004,
      "ĠbO": 5005,
      "ĠbP": 5006,
      "ĠbR": 5007,
      "ĠbX": 5008,
      "Ġbb": 5009,
      "Ġbi": 5010,
      "Ġbp": 5011,
      "Ġbw": 5012,
      "ĠbNJ": 5013,
      "ĠbWj": 5014,
      "Ġblj": 5015,
      "ĠbqK": 5016,
      "Ġ{!": 5017,
      "Ġ{\"": 5018,
      "Ġ{#": 5019,
      "Ġ{%": 5020,
      "Ġ{+": 5021,
      "Ġ{;": 5022,
      "Ġ{<": 5023,
      "Ġ{ãĢĳ": 5024,
      "Ġ{ãĢĤ": 5025,
      "Ġ{ãĢĭ": 5026,
      "Ġ{+&": 5027,
      "Ġ{:Â¥": 5028,
      "Ġ{|-": 5029,
      "ĠHA": 5030,
      "ĠHB": 5031,
      "ĠHF": 5032,
      "ĠHG": 5033,
      "ĠHS": 5034,
      "ĠHV": 5035,
      "ĠHd": 5036,
      "ĠHm": 5037,
      "ĠHr": 5038,
      "ĠHt": 5039,
      "ĠHy": 5040,
      "ĠHIO": 5041,
      "ĠHXC": 5042,
      "ĠHjx": 5043,
      "Ġ#\"": 5044,
      "Ġ#%": 5045,
      "Ġ#)": 5046,
      "Ġ#.": 5047,
      "Ġ#:": 5048,
      "Ġ#?": 5049,
      "Ġ#@": 5050,
      "Ġ#^": 5051,
      "Ġ#|": 5052,
      "Ġ#}": 5053,
      "Ġ#âĢľ": 5054,
      "Ġ#âĢĿ": 5055,
      "Ġ#Â¥": 5056,
      "Ġ#ãĢĭ": 5057,
      "Ġ#=âĢĻ": 5058,
      "ĠzA": 5059,
      "ĠzI": 5060,
      "ĠzN": 5061,
      "ĠzO": 5062,
      "ĠzR": 5063,
      "ĠzX": 5064,
      "Ġza": 5065,
      "Ġzh": 5066,
      "Ġzi": 5067,
      "Ġzo": 5068,
      "Ġzr": 5069,
      "ĠzSZ": 5070,
      "ĠzWW": 5071,
      "ĠzdT": 5072,
      "Ġzgi": 5073,
      "ĠzjJA": 5074,
      "Ġzxr": 5075,
      "ĠãĢĬ#": 5076,
      "ĠãĢĬ,": 5077,
      "ĠãĢĬ-": 5078,
      "ĠãĢĬ.": 5079,
      "ĠãĢĬ:": 5080,
      "ĠãĢĬâĤ¬": 5081,
      "ĠãĢĬãĢĬ": 5082,
      "ĠãĢĬâĢĿ": 5083,
      "ĠãĢĬÂ£": 5084,
      "ĠãĢĬâĢĻ": 5085,
      "ĠãĢĬãĢĭ": 5086,
      "ĠãĢĬ)<": 5087,
      "ĠãĢĬâĢľ<": 5088,
      "ĠãĢĬ!\"": 5089,
      "ĠãĢĬ&-": 5090,
      "ĠãĢĬ\\âĤ¬": 5091,
      "ĠãĢĬ|[": 5092,
      "Ġ-'": 5093,
      "Ġ-+": 5094,
      "Ġ-,": 5095,
      "Ġ->": 5096,
      "Ġ-|": 5097,
      "Ġ-âĢľ": 5098,
      "Ġ-âĢĻ": 5099,
      "Ġ-ãĢĤ": 5100,
      "Ġ-ãĢĭ": 5101,
      "Ġ-ãĢĳ%": 5102,
      "Ġ-!)(": 5103,
      "Ġ--ãĢĳ<": 5104,
      "Ġ80": 5105,
      "Ġ81": 5106,
      "Ġ86": 5107,
      "ĠmB": 5108,
      "ĠmK": 5109,
      "ĠmL": 5110,
      "ĠmO": 5111,
      "ĠmP": 5112,
      "ĠmQ": 5113,
      "ĠmU": 5114,
      "ĠmX": 5115,
      "Ġma": 5116,
      "Ġmc": 5117,
      "Ġmd": 5118,
      "Ġmg": 5119,
      "Ġmi": 5120,
      "Ġmk": 5121,
      "Ġml": 5122,
      "Ġmm": 5123,
      "Ġmn": 5124,
      "Ġmo": 5125,
      "Ġmq": 5126,
      "Ġms": 5127,
      "Ġmu": 5128,
      "Ġmy": 5129,
      "è¡Įè¡Į": 5130,
      "è¡ĮæĪĲ": 5131,
      "è¡Įæ²¡": 5132,
      "è¡Įä¸Ń": 5133,
      "è¡Įæĸ¯": 5134,
      "è¡Įèº«": 5135,
      "è¡Įè¿Ļ": 5136,
      "è¡ĮçĿĢ": 5137,
      "è¡Įç»ı": 5138,
      "è¡Įä¸¤": 5139,
      "è¡Įå¼Ģ": 5140,
      "è¡ĮæĬĬ": 5141,
      "è¡ĮæŃ¤": 5142,
      "è¡ĮéĿ¢": 5143,
      "è¡Įå·±": 5144,
      "è¡ĮåıĪ": 5145,
      "è¡ĮæĹ¶": 5146,
      "è¡ĮåĽ½": 5147,
      "è¡ĮçĦ¶": 5148,
      "è¡Įèĩª": 5149,
      "è¡ĮæīĢ": 5150,
      "è¡ĮæĦı": 5151,
      "è¡Įåīį": 5152,
      "è¡Įå¥½": 5153,
      "è¡ĮæĹł": 5154,
      "è¡Įæĸ¹": 5155,
      "è¡Įçİ°": 5156,
      "è¡Įä»ĸ": 5157,
      "è¡Įå¿ĥ": 5158,
      "è¡Įèĥ½": 5159,
      "è¡Įå®ĥ": 5160,
      "è¡ĮåĲĮ": 5161,
      "è¡ĮåĽł": 5162,
      "è¡Įç¬¬": 5163,
      "è¡Įæīĭå¥¹": 5164,
      "è¡Įä¹ĭäºİ": 5165,
      "è¡Įæĺ¯æŃ£": 5166,
      "è¡Įä¸ºåĬ¨": 5167,
      "ĠiE": 5168,
      "ĠiP": 5169,
      "ĠiQ": 5170,
      "ĠiR": 5171,
      "ĠiY": 5172,
      "Ġib": 5173,
      "Ġij": 5174,
      "Ġik": 5175,
      "Ġim": 5176,
      "Ġio": 5177,
      "Ġip": 5178,
      "Ġit": 5179,
      "Ġiw": 5180,
      "Ġix": 5181,
      "ĠiBq": 5182,
      "ĠiJV": 5183,
      "ĠiWE": 5184,
      "ĠinZd": 5185,
      "ĠwA": 5186,
      "ĠwD": 5187,
      "ĠwF": 5188,
      "ĠwL": 5189,
      "ĠwO": 5190,
      "ĠwQ": 5191,
      "ĠwR": 5192,
      "ĠwU": 5193,
      "ĠwY": 5194,
      "Ġwb": 5195,
      "Ġwe": 5196,
      "Ġwf": 5197,
      "Ġwh": 5198,
      "Ġwi": 5199,
      "Ġwgy": 5200,
      "ĠwuL": 5201,
      "ĠwxK": 5202,
      "ĠOB": 5203,
      "ĠOH": 5204,
      "ĠOJ": 5205,
      "ĠOK": 5206,
      "ĠON": 5207,
      "ĠOQ": 5208,
      "ĠOU": 5209,
      "ĠOY": 5210,
      "ĠOe": 5211,
      "ĠOf": 5212,
      "ĠOi": 5213,
      "ĠOj": 5214,
      "ĠOl": 5215,
      "ĠOn": 5216,
      "ĠOp": 5217,
      "ĠOw": 5218,
      "ĠOLD": 5219,
      "ĠOXW": 5220,
      "Ġ[\"": 5221,
      "Ġ['": 5222,
      "Ġ[)": 5223,
      "Ġ[*": 5224,
      "Ġ[/": 5225,
      "Ġ[>": 5226,
      "Ġ[?": 5227,
      "Ġ[[": 5228,
      "Ġ[^": 5229,
      "Ġ[{": 5230,
      "Ġ[ãĢĲ": 5231,
      "Ġ[âĢĻ": 5232,
      "Ġ[ãĢĳ": 5233,
      "Ġ[ãĢĭ": 5234,
      "Ġ[%*": 5235,
      "Ġ[},": 5236,
      "ĠBC": 5237,
      "ĠBE": 5238,
      "ĠBM": 5239,
      "ĠBT": 5240,
      "ĠBU": 5241,
      "ĠBW": 5242,
      "ĠBh": 5243,
      "ĠBj": 5244,
      "ĠBm": 5245,
      "ĠBHCu": 5246,
      "ĠBYPj": 5247,
      "ĠBoP": 5248,
      "ĠBrP": 5249,
      "ĠhA": 5250,
      "ĠhF": 5251,
      "ĠhH": 5252,
      "ĠhQ": 5253,
      "ĠhS": 5254,
      "Ġha": 5255,
      "Ġhh": 5256,
      "Ġhi": 5257,
      "Ġhl": 5258,
      "Ġho": 5259,
      "Ġhq": 5260,
      "Ġhr": 5261,
      "Ġhs": 5262,
      "Ġhu": 5263,
      "Ġhy": 5264,
      "ĠhMj": 5265,
      "ĠhVm": 5266,
      "ĠhNN": 5267,
      "ĠhUB": 5268,
      "Ġhfr": 5269,
      "ĠyA": 5270,
      "ĠyH": 5271,
      "ĠyL": 5272,
      "ĠyN": 5273,
      "ĠyO": 5274,
      "ĠyT": 5275,
      "ĠyW": 5276,
      "ĠyX": 5277,
      "Ġyl": 5278,
      "Ġyt": 5279,
      "Ġyv": 5280,
      "Ġyy": 5281,
      "ĠyCx": 5282,
      "ĠyIB": 5283,
      "Ġyeu": 5284,
      "ĠÂ¥#": 5285,
      "ĠÂ¥$": 5286,
      "ĠÂ¥&": 5287,
      "ĠÂ¥'": 5288,
      "ĠÂ¥/": 5289,
      "ĠÂ¥@": 5290,
      "ĠÂ¥{": 5291,
      "ĠÂ¥âĤ¬": 5292,
      "ĠÂ¥ãĢĲ": 5293,
      "ĠÂ¥âĢĿ": 5294,
      "ĠÂ¥ãĢĤ": 5295,
      "ĠÂ¥,âĢĿ": 5296,
      "Ġ91": 5297,
      "Ġ92": 5298,
      "Ġ94": 5299,
      "Ġ96": 5300,
      "Ġ99": 5301,
      "Ġ|!": 5302,
      "Ġ|%": 5303,
      "Ġ|'": 5304,
      "Ġ|*": 5305,
      "Ġ|,": 5306,
      "Ġ|.": 5307,
      "Ġ|/": 5308,
      "Ġ|<": 5309,
      "Ġ|@": 5310,
      "Ġ|ãĢĲ": 5311,
      "Ġ|âĢĺ": 5312,
      "Ġ|ãĢĬ": 5313,
      "Ġ|âĢĿ": 5314,
      "Ġ|*Â£": 5315,
      "Ġ|ãĢģâĢĻ": 5316,
      "Ġ|-<": 5317,
      "Ġ|.^": 5318,
      "Ġ|+\"": 5319,
      "Ġ|::": 5320,
      "ĠeB": 5321,
      "ĠeE": 5322,
      "ĠeF": 5323,
      "ĠeL": 5324,
      "ĠeN": 5325,
      "ĠeQ": 5326,
      "ĠeR": 5327,
      "ĠeW": 5328,
      "ĠeX": 5329,
      "ĠeY": 5330,
      "Ġeb": 5331,
      "Ġei": 5332,
      "Ġej": 5333,
      "Ġeu": 5334,
      "Ġew": 5335,
      "Ġebi": 5336,
      "Ġedt": 5337,
      "ĠetI": 5338,
      "Ġ^!": 5339,
      "Ġ^&": 5340,
      "Ġ^(": 5341,
      "Ġ^)": 5342,
      "Ġ^,": 5343,
      "Ġ^>": 5344,
      "Ġ^?": 5345,
      "Ġ^^": 5346,
      "Ġ^ãĢĲ": 5347,
      "Ġ^ãĢĬ": 5348,
      "Ġ^Â£": 5349,
      "Ġ^^[": 5350,
      "Ġ^<ãĢģ": 5351,
      "Ġ^@!": 5352,
      "ä¹ĭç¾İ": 5353,
      "ä¹ĭå¾Ĺ": 5354,
      "ä¹ĭæ²¡": 5355,
      "ä¹ĭèº«": 5356,
      "ä¹ĭéĩĮ": 5357,
      "ä¹ĭæĦŁ": 5358,
      "ä¹ĭæ¬¡": 5359,
      "ä¹ĭäº²": 5360,
      "ä¹ĭçĿĢ": 5361,
      "ä¹ĭå·²": 5362,
      "ä¹ĭå½ĵ": 5363,
      "ä¹ĭè¯´": 5364,
      "ä¹ĭå¦Ĥ": 5365,
      "ä¹ĭæŃ¤": 5366,
      "ä¹ĭåıĪ": 5367,
      "ä¹ĭåľ¨": 5368,
      "ä¹ĭçİ°": 5369,
      "ä¹ĭä½ľ": 5370,
      "ä¹ĭä»ĸ": 5371,
      "ä¹ĭè¿Ľ": 5372,
      "ä¹ĭåİ»": 5373,
      "ä¹ĭåı¯": 5374,
      "ä¹ĭçŁ¥": 5375,
      "ä¹ĭäº²åİ»": 5376,
      "ä¹ĭå¥³å®ĥ": 5377,
      "ä¹ĭæĹłä¸º": 5378,
      "ä¹ĭå¥½æĦı": 5379,
      "å¤´å¤´": 5380,
      "å¤´åĴĮ": 5381,
      "å¤´å¤©": 5382,
      "å¤´è¿ĺ": 5383,
      "å¤´åıª": 5384,
      "å¤´æľŁ": 5385,
      "å¤´æīĭ": 5386,
      "å¤´åľ°": 5387,
      "å¤´ä¸ĭ": 5388,
      "å¤´äºĭ": 5389,
      "å¤´æĦŁ": 5390,
      "å¤´çļĦ": 5391,
      "å¤´èĢĮ": 5392,
      "å¤´äº²": 5393,
      "å¤´éĤ£": 5394,
      "å¤´å·²": 5395,
      "å¤´åŃ¦": 5396,
      "å¤´è¯´": 5397,
      "å¤´æŃ¤": 5398,
      "å¤´æĥħ": 5399,
      "å¤´åĲİ": 5400,
      "å¤´åĩº": 5401,
      "å¤´æĥ³": 5402,
      "å¤´åĪ°": 5403,
      "å¤´ä¸Ģ": 5404,
      "å¤´ä»ĸ": 5405,
      "å¤´åİ»": 5406,
      "å¤´å¿ĥ": 5407,
      "å¤´ä¸Ĭ": 5408,
      "å¤´åħ¶": 5409,
      "å¤´æ´»": 5410,
      "å¤´ç§į": 5411,
      "å¤´ç¬¬": 5412,
      "å¤´éĹ´": 5413,
      "å¤´éĥ½æĹł": 5414,
      "å¤´åĲįçİ°": 5415,
      "å¤´å½ĵé«ĺ": 5416,
      "å¤´è¢«ä½ľ": 5417,
      "å¤´æĹłæĹ¶": 5418,
      "ç¾İå®¶": 5419,
      "ç¾İæīĭ": 5420,
      "ç¾İå°±": 5421,
      "ç¾İä¸ĭ": 5422,
      "ç¾İä¼ļ": 5423,
      "ç¾İä¹Ł": 5424,
      "ç¾İæĦŁ": 5425,
      "ç¾İä¸º": 5426,
      "ç¾İå¥¹": 5427,
      "ç¾İæł·": 5428,
      "ç¾İçĿĢ": 5429,
      "ç¾İåĲį": 5430,
      "ç¾İå¥³": 5431,
      "ç¾İå¯¹": 5432,
      "ç¾İåŃ¦": 5433,
      "ç¾İç»Ļ": 5434,
      "ç¾İå¼Ģ": 5435,
      "ç¾İå¤§": 5436,
      "ç¾İåĩº": 5437,
      "ç¾İæĦı": 5438,
      "ç¾İæĹł": 5439,
      "ç¾İäºĽ": 5440,
      "ç¾İåŃĲ": 5441,
      "ç¾İåĽł": 5442,
      "ç¾İç¬¬": 5443,
      "ç¾İéĹ´": 5444,
      "ç¾İåľ°è¿Ļ": 5445,
      "ç¾İçļĦæĬĬ": 5446,
      "ç¾İäºĽä¸Ģ": 5447,
      "ç¾İç¾İéĩĮ": 5448,
      "ç¾İæ¬¡çİ°": 5449,
      "ç¾İä»İæł·": 5450,
      "ç¾İåĪ°ä½ľ": 5451,
      "ç¾İäºİä¹Ī": 5452,
      "æĪĲå¤´": 5453,
      "æĪĲç¾İ": 5454,
      "æĪĲéĥ½": 5455,
      "æĪĲä¸Ń": 5456,
      "æĪĲå®¶": 5457,
      "æĪĲæīĭ": 5458,
      "æĪĲåľ°": 5459,
      "æĪĲèµ·": 5460,
      "æĪĲä¼ļ": 5461,
      "æĪĲèĢĮ": 5462,
      "æĪĲäº²": 5463,
      "æĪĲå¥³": 5464,
      "æĪĲç»ı": 5465,
      "æĪĲæĪĳ": 5466,
      "æĪĲä¸į": 5467,
      "æĪĲä»¬": 5468,
      "æĪĲè¢«": 5469,
      "æĪĲèĩª": 5470,
      "æĪĲæĥ³": 5471,
      "æĪĲæľī": 5472,
      "æĪĲåīį": 5473,
      "æĪĲæĢ»": 5474,
      "æĪĲåŃĲ": 5475,
      "æĪĲéģĵ": 5476,
      "æĪĲä¸Ģ": 5477,
      "æĪĲçİ°": 5478,
      "æĪĲå¹´": 5479,
      "æĪĲå¿ĥ": 5480,
      "æĪĲäººä¸º": 5481,
      "æĪĲå¤´åĽł": 5482,
      "æĪĲåıªåĦ¿": 5483,
      "æĪĲåŃ¦åĪ°": 5484,
      "æĪĲæĹ¶èµ·": 5485,
      "åĴĮéĥ½": 5486,
      "åĴĮè¿ĺ": 5487,
      "åĴĮæ³ķ": 5488,
      "åĴĮåıª": 5489,
      "åĴĮæĦŁ": 5490,
      "åĴĮæĿ¥": 5491,
      "åĴĮä¸º": 5492,
      "åĴĮå¯¹": 5493,
      "åĴĮæĬĬ": 5494,
      "åĴĮä»¬": 5495,
      "åĴĮä»Ģ": 5496,
      "åĴĮèĢģ": 5497,
      "åĴĮæľī": 5498,
      "åĴĮæĦı": 5499,
      "åĴĮåĦ¿": 5500,
      "åĴĮæĢ»": 5501,
      "åĴĮå¤ļ": 5502,
      "åĴĮåľ¨": 5503,
      "åĴĮçľĭ": 5504,
      "åĴĮçŁ¥": 5505,
      "åĴĮè¯Ŀ": 5506,
      "åĴĮåĽł": 5507,
      "åĴĮåĲİåĲĮ": 5508,
      "åĴĮæīĭå¥¹": 5509,
      "åĴĮèº«æĹ¶": 5510,
      "åĴĮåĴĮæĹ¶": 5511,
      "åĴĮåĲįå¥¹": 5512,
      "åĴĮè¦ģä¸¤": 5513,
      "åĴĮåŃĲå¦Ĥ": 5514,
      "åĴĮè¡Įåīį": 5515,
      "Ġ%#": 5516,
      "Ġ%-": 5517,
      "Ġ%/": 5518,
      "Ġ%;": 5519,
      "Ġ%ãĢĲ": 5520,
      "Ġ%âĢĿ": 5521,
      "Ġ%âĢĻ": 5522,
      "Ġ%ãĢĭ": 5523,
      "Ġ%\"ãĢĲ": 5524,
      "Ġ%%ãĢĬ": 5525,
      "Ġ%!}": 5526,
      "Ġ%}#;": 5527,
      "ä½įå¤´": 5528,
      "ä½įåıª": 5529,
      "ä½įå®¶": 5530,
      "ä½įä½Ĩ": 5531,
      "ä½įåľ°": 5532,
      "ä½įæĺ¯": 5533,
      "ä½įä¸ĭ": 5534,
      "ä½įä¼ļ": 5535,
      "ä½įæĿ¥": 5536,
      "ä½įæł·": 5537,
      "ä½įéĤ£": 5538,
      "ä½įåĲį": 5539,
      "ä½įå¥³": 5540,
      "ä½įå¯¹": 5541,
      "ä½įçĦ¶": 5542,
      "ä½įæĦı": 5543,
      "ä½įåīį": 5544,
      "ä½įäºĽ": 5545,
      "ä½įåŃĲ": 5546,
      "ä½įå¾Ī": 5547,
      "ä½įçĶŁ": 5548,
      "ä½įä½ľ": 5549,
      "ä½įè¿Ľ": 5550,
      "ä½įå¿ĥ": 5551,
      "ä½įå®ĥ": 5552,
      "ä½įä¸Ńæĸ¯": 5553,
      "ä½įå¾Ĺæľī": 5554,
      "ä½įæĦŁäºº": 5555,
      "ä½įæ¬¡ç¾İ": 5556,
      "ä½įéĤ£æ¬¡": 5557,
      "ä½įä¸İç»Ļ": 5558,
      "ä½įç¾İèĢģ": 5559,
      "ä½įå¾ĹåĬ¨": 5560,
      "ä½įèĩªè¡Į": 5561,
      "ä½įè¯Ŀåľ°": 5562,
      "å¾Ĺè¿ĩ": 5563,
      "å¾ĹèĢĮ": 5564,
      "å¾Ĺå¸¸": 5565,
      "å¾Ĺæł·": 5566,
      "å¾ĹçĿĢ": 5567,
      "å¾Ĺå¥³": 5568,
      "å¾Ĺç»ı": 5569,
      "å¾ĹåŃ¦": 5570,
      "å¾Ĺç»Ļ": 5571,
      "å¾Ĺè¦ģ": 5572,
      "å¾Ĺä»¬": 5573,
      "å¾ĹæĹ¥": 5574,
      "å¾Ĺå¤§": 5575,
      "å¾ĹåĽ½": 5576,
      "å¾Ĺåĩº": 5577,
      "å¾Ĺåīį": 5578,
      "å¾ĹåĪ°": 5579,
      "å¾Ĺæĸ¹": 5580,
      "å¾Ĺéģĵ": 5581,
      "å¾Ĺä¸Ģ": 5582,
      "å¾Ĺä½ľ": 5583,
      "å¾Ĺä¸Ĭ": 5584,
      "å¾Ĺç§į": 5585,
      "å¾Ĺåĩºå½ĵ": 5586,
      "å¾ĹæĪĲè¯Ŀ": 5587,
      "å¾Ĺæĸ¯è¿ĺ": 5588,
      "å¾Ĺè¯´åŃ¦": 5589,
      "æ²¡ç¾İ": 5590,
      "æ²¡åľ°": 5591,
      "æ²¡ä¼ļ": 5592,
      "æ²¡æĦŁ": 5593,
      "æ²¡æ¬¡": 5594,
      "æ²¡èĢĮ": 5595,
      "æ²¡æĿ¥": 5596,
      "æ²¡åŃ¦": 5597,
      "æ²¡æĪĳ": 5598,
      "æ²¡ä¸į": 5599,
      "æ²¡ä»Ģ": 5600,
      "æ²¡è¢«": 5601,
      "æ²¡ä¸ª": 5602,
      "æ²¡æīĢ": 5603,
      "æ²¡æĦı": 5604,
      "æ²¡å¥½": 5605,
      "æ²¡å¤ļ": 5606,
      "æ²¡åŃĲ": 5607,
      "æ²¡å¾Ī": 5608,
      "æ²¡çĶ¨": 5609,
      "æ²¡åĽł": 5610,
      "æ²¡çĪ±": 5611,
      "æ²¡è¿ĺåıĪ": 5612,
      "æ²¡è¿ĺæĢ»": 5613,
      "æ²¡è¡Įå¼Ģ": 5614,
      "æ²¡å¤´åľ°": 5615,
      "ĠãĢĭ!": 5616,
      "ĠãĢĭ'": 5617,
      "ĠãĢĭ,": 5618,
      "ĠãĢĭ-": 5619,
      "ĠãĢĭ;": 5620,
      "ĠãĢĭ<": 5621,
      "ĠãĢĭ?": 5622,
      "ĠãĢĭ[": 5623,
      "ĠãĢĭ{": 5624,
      "ĠãĢĭâĢľ": 5625,
      "ĠãĢĭãĢĬ": 5626,
      "ĠãĢĭ#ãĢĬ": 5627,
      "ĠãĢĭ=<": 5628,
      "ĠãĢĭ@[": 5629,
      "ĠãĢĭ].": 5630,
      "éĥ½å¤´": 5631,
      "éĥ½åıª": 5632,
      "éĥ½æĸ¯": 5633,
      "éĥ½åľ°": 5634,
      "éĥ½å°±": 5635,
      "éĥ½æĺ¯": 5636,
      "éĥ½è¿ĩ": 5637,
      "éĥ½æł·": 5638,
      "éĥ½æŃ£": 5639,
      "éĥ½åŃ¦": 5640,
      "éĥ½ä¸¤": 5641,
      "éĥ½æĪĳ": 5642,
      "éĥ½æĹ¥": 5643,
      "éĥ½åĲİ": 5644,
      "éĥ½åĽ½": 5645,
      "éĥ½æīĢ": 5646,
      "éĥ½å¥½": 5647,
      "éĥ½åĪĨ": 5648,
      "éĥ½åľ¨": 5649,
      "éĥ½ä¸Ģ": 5650,
      "éĥ½çĶŁ": 5651,
      "éĥ½ä½ľ": 5652,
      "éĥ½çŁ¥": 5653,
      "éĥ½èĥ½": 5654,
      "éĥ½åĲĮ": 5655,
      "éĥ½çĶ¨": 5656,
      "éĥ½å½ĵå¥³": 5657,
      "éĥ½è¡Įæ´»": 5658,
      "éĥ½éķ¿ä½¿": 5659,
      "éĥ½ç¾İä¹Ł": 5660,
      "å¤©ç¾İ": 5661,
      "å¤©æĺ¯": 5662,
      "å¤©ä¼ļ": 5663,
      "å¤©ä¹Ł": 5664,
      "å¤©æĦŁ": 5665,
      "å¤©ä»¥": 5666,
      "å¤©å¦Ĥ": 5667,
      "å¤©ä»¬": 5668,
      "å¤©éĿ¢": 5669,
      "å¤©ä¹Ī": 5670,
      "å¤©èĢģ": 5671,
      "å¤©åĽ½": 5672,
      "å¤©çĦ¶": 5673,
      "å¤©æľī": 5674,
      "å¤©äºº": 5675,
      "å¤©èĢħ": 5676,
      "å¤©äºĽ": 5677,
      "å¤©æĸ¹": 5678,
      "å¤©å¾Ī": 5679,
      "å¤©ä½ľ": 5680,
      "å¤©çŁ¥": 5681,
      "å¤©èĥ½": 5682,
      "å¤©å®ĥ": 5683,
      "å¤©éĹ´": 5684,
      "å¤©æĬĬè¿ĩ": 5685,
      "å¤©åĩºäºİ": 5686,
      "å¤©çľĭçŁ¥": 5687,
      "å¤©éĥ½åıĳ": 5688,
      "å¤©æĥħå¤´": 5689,
      "å¤©æĥ³ä¸Ģ": 5690,
      "å¤©çİ°ä¸İ": 5691,
      "å¤©å¤´å½ĵé«ĺ": 5692,
      "å¤©åĴĮæĦŁ": 5693,
      "å¤©ä½įå¾ĹåĬ¨": 5694,
      "è¿ĺä½į": 5695,
      "è¿ĺä¸Ń": 5696,
      "è¿ĺæľŁ": 5697,
      "è¿ĺå®¶": 5698,
      "è¿ĺèµ·": 5699,
      "è¿ĺä¼ļ": 5700,
      "è¿ĺè¿ĩ": 5701,
      "è¿ĺçĿĢ": 5702,
      "è¿ĺç»ı": 5703,
      "è¿ĺè¦ģ": 5704,
      "è¿ĺåĬ¨": 5705,
      "è¿ĺåĩº": 5706,
      "è¿ĺèĩª": 5707,
      "è¿ĺæĥ³": 5708,
      "è¿ĺæĦı": 5709,
      "è¿ĺèĢħ": 5710,
      "è¿ĺåĦ¿": 5711,
      "è¿ĺå¥½": 5712,
      "è¿ĺå¤ļ": 5713,
      "è¿ĺåľ¨": 5714,
      "è¿ĺåİ»": 5715,
      "è¿ĺä½¿": 5716,
      "è¿ĺå¿ĥ": 5717,
      "è¿ĺä¸Ĭ": 5718,
      "è¿ĺèĥ½": 5719,
      "è¿ĺåĲĮ": 5720,
      "è¿ĺåĽł": 5721,
      "è¿ĺçĪ±": 5722,
      "è¿ĺæ³ķå¦Ĥ": 5723,
      "è¿ĺæĪĲåĪĨ": 5724,
      "è¿ĺè¡Įå®ĥ": 5725,
      "æ³ķå¤´": 5726,
      "æ³ķæĪĲ": 5727,
      "æ³ķåĴĮ": 5728,
      "æ³ķè¿ĺ": 5729,
      "æ³ķæľŁ": 5730,
      "æ³ķæĸ¯": 5731,
      "æ³ķä½Ĩ": 5732,
      "æ³ķæīĭ": 5733,
      "æ³ķè¿Ļ": 5734,
      "æ³ķä»İ": 5735,
      "æ³ķå¥³": 5736,
      "æ³ķç»ı": 5737,
      "æ³ķåŃ¦": 5738,
      "æ³ķä¸¤": 5739,
      "æ³ķåıĳ": 5740,
      "æ³ķç»Ļ": 5741,
      "æ³ķè¦ģ": 5742,
      "æ³ķæĥħ": 5743,
      "æ³ķä¸ª": 5744,
      "æ³ķä¹Ī": 5745,
      "æ³ķæĹ¶": 5746,
      "æ³ķåĲİ": 5747,
      "æ³ķåĦ¿": 5748,
      "æ³ķæĹł": 5749,
      "æ³ķåı¯": 5750,
      "æ³ķè¯Ŀ": 5751,
      "æ³ķåĲĮ": 5752,
      "æ³ķä¸ĸæľĢ": 5753,
      "æ³ķå¾Īå¼Ģ": 5754,
      "æ³ķä¹ĭç¾İ": 5755,
      "æ³ķæ²¡åľ°": 5756,
      "ä¸ŃåĴĮ": 5757,
      "ä¸Ńå¤©": 5758,
      "ä¸Ńæĺ¯": 5759,
      "ä¸Ńæ¬¡": 5760,
      "ä¸ŃçļĦ": 5761,
      "ä¸Ńæł·": 5762,
      "ä¸ŃçĿĢ": 5763,
      "ä¸ŃäºĨ": 5764,
      "ä¸Ńä»İ": 5765,
      "ä¸Ńç»ı": 5766,
      "ä¸ŃåŃ¦": 5767,
      "ä¸Ńå¼Ģ": 5768,
      "ä¸ŃæŃ¤": 5769,
      "ä¸ŃéĿ¢": 5770,
      "ä¸ŃæĹ¶": 5771,
      "ä¸ŃæīĢ": 5772,
      "ä¸ŃæľĢ": 5773,
      "ä¸Ńæĸ¹": 5774,
      "ä¸Ńä¸Ģ": 5775,
      "ä¸ŃçĶŁ": 5776,
      "ä¸Ńå°ı": 5777,
      "ä¸ŃåĽŀ": 5778,
      "ä¸Ńç§į": 5779,
      "ä¸Ńç¬¬": 5780,
      "ä¸Ńäºİ": 5781,
      "ä¸Ńè¢«è¦ģ": 5782,
      "ä¸Ńè¡ĮåĦ¿": 5783,
      "ä¸Ńä¹ĭä¸ĸ": 5784,
      "ä¸Ńä½įçŁ¥": 5785,
      "ä¸Ńç¾İéĹ´": 5786,
      "ä¸Ńæ²¡è¡Įå¼Ģ": 5787,
      "ä¸Ńæ³ķæīĭ": 5788,
      "åıªåıª": 5789,
      "åıªæīĭ": 5790,
      "åıªèº«": 5791,
      "åıªæĦŁ": 5792,
      "åıªè¿Ļ": 5793,
      "åıªçĿĢ": 5794,
      "åıªéĤ£": 5795,
      "åıªå¥³": 5796,
      "åıªå¦Ĥ": 5797,
      "åıªæĬĬ": 5798,
      "åıªä¸į": 5799,
      "åıªåĬ¨": 5800,
      "åıªå·±": 5801,
      "åıªæĹ¶": 5802,
      "åıªçĦ¶": 5803,
      "åıªèĩª": 5804,
      "åıªå¥½": 5805,
      "åıªåĪĨ": 5806,
      "åıªå¾Ī": 5807,
      "åıªçİ°": 5808,
      "åıªä½ľ": 5809,
      "åıªä»ĸ": 5810,
      "åıªå¹´": 5811,
      "åıªçŁ¥": 5812,
      "åıªå®ĥ": 5813,
      "åıªå°ı": 5814,
      "åıªçĪ±": 5815,
      "åıªè¿ĩåĦ¿": 5816,
      "åıªä»¬ä¹Ī": 5817,
      "åıªåľ¨éĿ¢": 5818,
      "åıªåı¯å¥½": 5819,
      "æľŁè¿ĺ": 5820,
      "æľŁæľŁ": 5821,
      "æľŁä½Ĩ": 5822,
      "æľŁæĺ¯": 5823,
      "æľŁä¸ĭ": 5824,
      "æľŁéĩĮ": 5825,
      "æľŁæ¬¡": 5826,
      "æľŁæĿ¥": 5827,
      "æľŁåĲį": 5828,
      "æľŁå¦Ĥ": 5829,
      "æľŁåıĳ": 5830,
      "æľŁåıĪ": 5831,
      "æľŁä¹Ī": 5832,
      "æľŁåīį": 5833,
      "æľŁæľĢ": 5834,
      "æľŁæĸ¹": 5835,
      "æľŁåŃĲ": 5836,
      "æľŁçľĭ": 5837,
      "æľŁéģĵ": 5838,
      "æľŁä¸Ģ": 5839,
      "æľŁä½¿": 5840,
      "æľŁèĥ½": 5841,
      "æľŁå®ĥ": 5842,
      "æľŁåĽŀ": 5843,
      "æľŁéĹ´": 5844,
      "æľŁçĪ±": 5845,
      "æľŁä¸ĭæľŁ": 5846,
      "æľŁçĿĢå¾Ī": 5847,
      "æľŁå½ĵå¥³": 5848,
      "æľŁè¦ģåıª": 5849,
      "æľŁåĪĨæĪĲ": 5850,
      "æľŁéĹ´ä¼ļ": 5851,
      "æľŁäºĭæĦŁ": 5852,
      "æľŁä¼ļæĥ³": 5853,
      "æľŁæł·æŃ£": 5854,
      "æľŁå·±å¤©": 5855,
      "æľŁåĩºçļĦ": 5856,
      "æľŁæĦıä¸ĭ": 5857,
      "æľŁä¹ĭå·²": 5858,
      "æĸ¯ç¾İ": 5859,
      "æĸ¯æ³ķ": 5860,
      "æĸ¯å°±": 5861,
      "æĸ¯æĺ¯": 5862,
      "æĸ¯èµ·": 5863,
      "æĸ¯ä¸ĭ": 5864,
      "æĸ¯äºĭ": 5865,
      "æĸ¯ä»¥": 5866,
      "æĸ¯è¿ĩ": 5867,
      "æĸ¯è¯´": 5868,
      "æĸ¯ä¸İ": 5869,
      "æĸ¯åıĳ": 5870,
      "æĸ¯æĹ¥": 5871,
      "æĸ¯ä½ł": 5872,
      "æĸ¯èĢģ": 5873,
      "æĸ¯åĩº": 5874,
      "æĸ¯å¥½": 5875,
      "æĸ¯éģĵ": 5876,
      "æĸ¯è¯Ŀ": 5877,
      "æĸ¯å°ı": 5878,
      "æĸ¯äºİ": 5879,
      "æĸ¯èĩªåĽ½": 5880,
      "æĸ¯éģĵä»ĸ": 5881,
      "æĸ¯åĴĮçĦ¶": 5882,
      "æĸ¯éĤ£åĬ¨": 5883,
      "æĸ¯äºĨåĴĮ": 5884,
      "æĸ¯å¥³æĿ¥": 5885,
      "æĸ¯ä½ľè¢«": 5886,
      "å®¶ä¹ĭ": 5887,
      "å®¶äºĭ": 5888,
      "å®¶çļĦ": 5889,
      "å®¶å·²": 5890,
      "å®¶å½ĵ": 5891,
      "å®¶æĪĳ": 5892,
      "å®¶ç»Ļ": 5893,
      "å®¶æŃ¤": 5894,
      "å®¶æĥħ": 5895,
      "å®¶åıĪ": 5896,
      "å®¶èĢģ": 5897,
      "å®¶æĹ¶": 5898,
      "å®¶åĩº": 5899,
      "å®¶çĦ¶": 5900,
      "å®¶èĩª": 5901,
      "å®¶åĦ¿": 5902,
      "å®¶åĪĨ": 5903,
      "å®¶å¤ļ": 5904,
      "å®¶çľĭ": 5905,
      "å®¶ä»ĸ": 5906,
      "å®¶å¹´": 5907,
      "å®¶çŁ¥": 5908,
      "å®¶å®ĥ": 5909,
      "å®¶å°ı": 5910,
      "å®¶æ´»": 5911,
      "å®¶å·²åĩº": 5912,
      "å®¶è¡Įä¸į": 5913,
      "å®¶å¾ĹéĤ£": 5914,
      "å®¶èº«äºĭ": 5915,
      "å®¶åıĳçĶ¨": 5916,
      "å®¶è¦ģåĽŀ": 5917,
      "å®¶åĲİèĢħ": 5918,
      "å®¶åŃĲå¦Ĥ": 5919,
      "å®¶çĶ¨åĪĨ": 5920,
      "å®¶è¡ĮæīĢ": 5921,
      "å®¶ä½įæĦı": 5922,
      "ä½ĨåĴĮ": 5923,
      "ä½Ĩå¤©": 5924,
      "ä½Ĩåľ°": 5925,
      "ä½Ĩæĺ¯": 5926,
      "ä½Ĩä¼ļ": 5927,
      "ä½Ĩè¿ĩ": 5928,
      "ä½ĨéĤ£": 5929,
      "ä½ĨæŃ£": 5930,
      "ä½Ĩå¯¹": 5931,
      "ä½ĨæĪĳ": 5932,
      "ä½Ĩå¼Ģ": 5933,
      "ä½Ĩè¦ģ": 5934,
      "ä½ĨæĹ¥": 5935,
      "ä½Ĩæĥħ": 5936,
      "ä½Ĩä½ł": 5937,
      "ä½ĨåıĪ": 5938,
      "ä½ĨèĢģ": 5939,
      "ä½Ĩæĸ¹": 5940,
      "ä½Ĩåľ¨": 5941,
      "ä½Ĩçľĭ": 5942,
      "ä½Ĩä½ľ": 5943,
      "ä½Ĩåı¯": 5944,
      "ä½Ĩåħ¶": 5945,
      "ä½Ĩèĥ½": 5946,
      "ä½Ĩç¬¬": 5947,
      "ä½Ĩå¾Ĺæľī": 5948,
      "ä½Ĩæīĭä¼ļ": 5949,
      "ä½Ĩæīĭè¿Ľ": 5950,
      "ä½Ĩå¾ĹäºĽ": 5951,
      "ä½ĨåŃ¦ä»Ģ": 5952,
      "ä½Ĩè¯´ä½ľ": 5953,
      "ä½Ĩä¹Īæł·": 5954,
      "ä½Ĩå¥½å¼Ģ": 5955,
      "ä½ĨéĹ´æĺ¯": 5956,
      "æīĭæĪĲ": 5957,
      "æīĭéĥ½": 5958,
      "æīĭåıª": 5959,
      "æīĭå®¶": 5960,
      "æīĭæ¬¡": 5961,
      "æīĭä»¥": 5962,
      "æīĭè¿Ļ": 5963,
      "æīĭäº²": 5964,
      "æīĭéĤ£": 5965,
      "æīĭç»ı": 5966,
      "æīĭè¯´": 5967,
      "æīĭåıĳ": 5968,
      "æīĭå¼Ģ": 5969,
      "æīĭæŃ¤": 5970,
      "æīĭè¢«": 5971,
      "æīĭä¹Ī": 5972,
      "æīĭæĹ¶": 5973,
      "æīĭåĲİ": 5974,
      "æīĭèĩª": 5975,
      "æīĭåīį": 5976,
      "æīĭèĢħ": 5977,
      "æīĭåľ¨": 5978,
      "æīĭéģĵ": 5979,
      "æīĭçİ°": 5980,
      "æīĭä½ľ": 5981,
      "æīĭä»ĸ": 5982,
      "æīĭä½¿": 5983,
      "æīĭä¸Ĭ": 5984,
      "æīĭçĶ¨": 5985,
      "æīĭç¬¬": 5986,
      "æīĭäºİ": 5987,
      "æīĭåľ°çŁ¥": 5988,
      "æīĭä¹Łè¿ĺ": 5989,
      "æīĭåıĪæĹ¶": 5990,
      "æīĭåĽłä¸ĭ": 5991,
      "æīĭè¡ĮçĦ¶": 5992,
      "æīĭåĴĮä¸º": 5993,
      "æīĭå¾Ĺä¸Ģ": 5994,
      "æīĭæľŁæĺ¯": 5995,
      "åľ°è¡Į": 5996,
      "åľ°èº«": 5997,
      "åľ°è¿ĩ": 5998,
      "åľ°æĿ¥": 5999,
      "åľ°å½ĵ": 6000,
      "åľ°å¯¹": 6001,
      "åľ°ä»¬": 6002,
      "åľ°ä¸ĸ": 6003,
      "åľ°åıĪ": 6004,
      "åľ°åĲİ": 6005,
      "åľ°åĽ½": 6006,
      "åľ°æĥ³": 6007,
      "åľ°åĦ¿": 6008,
      "åľ°åĪ°": 6009,
      "åľ°éķ¿": 6010,
      "åľ°äºĽ": 6011,
      "åľ°æľĢ": 6012,
      "åľ°çľĭ": 6013,
      "åľ°è¿Ľ": 6014,
      "åľ°åĲĮ": 6015,
      "åľ°ç¬¬": 6016,
      "åľ°åİ»åĴĮ": 6017,
      "åľ°æľŁè¿ĺ": 6018,
      "å°±å¾Ĺ": 6019,
      "å°±åıª": 6020,
      "å°±å®¶": 6021,
      "å°±èµ·": 6022,
      "å°±æ¬¡": 6023,
      "å°±èĢĮ": 6024,
      "å°±åıĳ": 6025,
      "å°±å¼Ģ": 6026,
      "å°±ä»Ģ": 6027,
      "å°±åĩº": 6028,
      "å°±äºº": 6029,
      "å°±å¥½": 6030,
      "å°±æľĢ": 6031,
      "å°±çľĭ": 6032,
      "å°±çİ°": 6033,
      "å°±çĶŁ": 6034,
      "å°±ä»ĸ": 6035,
      "å°±çŁ¥": 6036,
      "å°±åħ¶": 6037,
      "å°±èĥ½": 6038,
      "å°±å®ĥ": 6039,
      "å°±åĽŀ": 6040,
      "å°±çĶ¨": 6041,
      "å°±äºİ": 6042,
      "å°±çĪ±": 6043,
      "å°±ä»İä¸Ń": 6044,
      "å°±æŃ¤åĲį": 6045,
      "å°±æĥ³å½ĵ": 6046,
      "å°±ç§įåŃĲ": 6047,
      "å°±è¡Įè¡Į": 6048,
      "å°±å¤©ä¹Ł": 6049,
      "å°±æľŁçľĭ": 6050,
      "æĺ¯å¤´": 6051,
      "æĺ¯éĥ½": 6052,
      "æĺ¯å¤©": 6053,
      "æĺ¯å°±": 6054,
      "æĺ¯ä¸ĭ": 6055,
      "æĺ¯æĿ¥": 6056,
      "æĺ¯æł·": 6057,
      "æĺ¯å·²": 6058,
      "æĺ¯ç»ı": 6059,
      "æĺ¯åŃ¦": 6060,
      "æĺ¯ç»Ļ": 6061,
      "æĺ¯åıĪ": 6062,
      "æĺ¯çĦ¶": 6063,
      "æĺ¯æīĢ": 6064,
      "æĺ¯æĥ³": 6065,
      "æĺ¯èĢħ": 6066,
      "æĺ¯å¾Ī": 6067,
      "æĺ¯åİ»": 6068,
      "æĺ¯å¿ĥ": 6069,
      "æĺ¯çŁ¥": 6070,
      "æĺ¯èĥ½": 6071,
      "æĺ¯ç§į": 6072,
      "æĺ¯åĽł": 6073,
      "æĺ¯ä»ĢåĲį": 6074,
      "æĺ¯ä¸ĢåĪ°": 6075,
      "æĺ¯ä¸Ĭæĸ¯": 6076,
      "æĺ¯å°ıä»¥": 6077,
      "æĺ¯æ²¡ä¸ª": 6078,
      "æĺ¯ä½ĨèĢģ": 6079,
      "èµ·ä¸Ń": 6080,
      "èµ·å®¶": 6081,
      "èµ·å¸¸": 6082,
      "èµ·æĿ¥": 6083,
      "èµ·éĤ£": 6084,
      "èµ·ä»İ": 6085,
      "èµ·å·²": 6086,
      "èµ·å¯¹": 6087,
      "èµ·è¯´": 6088,
      "èµ·ä¸İ": 6089,
      "èµ·å¼Ģ": 6090,
      "èµ·æĬĬ": 6091,
      "èµ·ä»¬": 6092,
      "èµ·æĹ¥": 6093,
      "èµ·ä½ł": 6094,
      "èµ·ä¸ĸ": 6095,
      "èµ·åĽ½": 6096,
      "èµ·åīį": 6097,
      "èµ·åĪ°": 6098,
      "èµ·åĪĨ": 6099,
      "èµ·å¾Ī": 6100,
      "èµ·çĶŁ": 6101,
      "èµ·ä½ľ": 6102,
      "èµ·èĥ½": 6103,
      "èµ·åĽŀ": 6104,
      "èµ·äºİ": 6105,
      "èµ·å¸¸ä¸İ": 6106,
      "èµ·è¡Įä¹Ī": 6107,
      "èµ·ä¸ĭæ¬¡": 6108,
      "èµ·æĦŁå¥³": 6109,
      "èµ·å½ĵä½¿": 6110,
      "èµ·æĥ³äºº": 6111,
      "èµ·åĴĮè¦ģä¸¤": 6112,
      "ä¸ĭè¡Į": 6113,
      "ä¸ĭå¤´": 6114,
      "ä¸ĭæ²¡": 6115,
      "ä¸ĭäºĭ": 6116,
      "ä¸ĭä»¥": 6117,
      "ä¸ĭå·²": 6118,
      "ä¸ĭè¯´": 6119,
      "ä¸ĭæĪĳ": 6120,
      "ä¸ĭå¼Ģ": 6121,
      "ä¸ĭæĬĬ": 6122,
      "ä¸ĭä»Ģ": 6123,
      "ä¸ĭéĿ¢": 6124,
      "ä¸ĭä¹Ī": 6125,
      "ä¸ĭäºº": 6126,
      "ä¸ĭèĢħ": 6127,
      "ä¸ĭåĪ°": 6128,
      "ä¸ĭéķ¿": 6129,
      "ä¸ĭäºĽ": 6130,
      "ä¸ĭæĸ¹": 6131,
      "ä¸ĭçľĭ": 6132,
      "ä¸ĭä¸Ģ": 6133,
      "ä¸ĭå¾Ī": 6134,
      "ä¸ĭå¿ĥ": 6135,
      "ä¸ĭè¯Ŀ": 6136,
      "ä¸ĭå°ı": 6137,
      "ä¸ĭæ´»": 6138,
      "ä¸ĭåĲĮ": 6139,
      "ä¸ĭéĹ´": 6140,
      "ä¸ĭåŃ¦åīį": 6141,
      "ä¸ĭå·±ç§į": 6142,
      "ä¸ĭäºİäºĨ": 6143,
      "ä¸ĭä¹ĭè¿Ľ": 6144,
      "ä¸ĭæĪĲå¤´": 6145,
      "äºĭæĪĲ": 6146,
      "äºĭåĴĮ": 6147,
      "äºĭè¿ĺ": 6148,
      "äºĭä¸Ń": 6149,
      "äºĭä¹Ł": 6150,
      "äºĭæ¬¡": 6151,
      "äºĭä»¥": 6152,
      "äºĭè¿Ļ": 6153,
      "äºĭéĤ£": 6154,
      "äºĭæŃ£": 6155,
      "äºĭå½ĵ": 6156,
      "äºĭè¯´": 6157,
      "äºĭç»Ļ": 6158,
      "äºĭä»¬": 6159,
      "äºĭä»Ģ": 6160,
      "äºĭæĹ¥": 6161,
      "äºĭåĬ¨": 6162,
      "äºĭå·±": 6163,
      "äºĭå¤§": 6164,
      "äºĭä¹Ī": 6165,
      "äºĭåĲİ": 6166,
      "äºĭèĢħ": 6167,
      "äºĭå¥½": 6168,
      "äºĭåŃĲ": 6169,
      "äºĭä¸Ģ": 6170,
      "äºĭå¾Ī": 6171,
      "äºĭå°ı": 6172,
      "äºĭéĹ´": 6173,
      "äºĭçĪ±": 6174,
      "äºĭèµ·çľĭ": 6175,
      "äºĭç»ıäº²": 6176,
      "äºĭè¿Ľæ³ķ": 6177,
      "äºĭä½įä½ľ": 6178,
      "äºĭå¤©èĢģ": 6179,
      "äºĭä½Ĩå¥½å¼Ģ": 6180,
      "äºĭå°±åħ¶": 6181,
      "ä¼ļèº«": 6182,
      "ä¼ļæ¬¡": 6183,
      "ä¼ļæł·": 6184,
      "ä¼ļçĿĢ": 6185,
      "ä¼ļä»İ": 6186,
      "ä¼ļå¯¹": 6187,
      "ä¼ļç»ı": 6188,
      "ä¼ļåŃ¦": 6189,
      "ä¼ļæĪĳ": 6190,
      "ä¼ļå¼Ģ": 6191,
      "ä¼ļæĹ¥": 6192,
      "ä¼ļåĩº": 6193,
      "ä¼ļæľī": 6194,
      "ä¼ļå¤ļ": 6195,
      "ä¼ļåľ¨": 6196,
      "ä¼ļçĶŁ": 6197,
      "ä¼ļçŁ¥": 6198,
      "ä¼ļå®ĥ": 6199,
      "ä¼ļå°ı": 6200,
      "ä¼ļåĲĮ": 6201,
      "ä¼ļçĶ¨": 6202,
      "ä¼ļäºİ": 6203,
      "ä¼ļè¦ģæŃ¤": 6204,
      "ä¼ļäºĨéģĵ": 6205,
      "ä¼ļä½łä¹ĭ": 6206,
      "ä¼ļä¸ĸä¹Ī": 6207,
      "ä¼ļä»ĸå½ĵ": 6208,
      "ä¼ļè¿Ľäºĭ": 6209,
      "ä¼ļåİ»å¸¸": 6210,
      "ä¼ļå¤´æĹłæĹ¶": 6211,
      "èº«è¿ĺ": 6212,
      "èº«ä¸Ń": 6213,
      "èº«åıª": 6214,
      "èº«æĸ¯": 6215,
      "èº«ä¸ĭ": 6216,
      "èº«çļĦ": 6217,
      "èº«ä»¥": 6218,
      "èº«äº²": 6219,
      "èº«äºĨ": 6220,
      "èº«æŃ£": 6221,
      "èº«å·²": 6222,
      "èº«å¯¹": 6223,
      "èº«è¯´": 6224,
      "èº«ä¸İ": 6225,
      "èº«æŃ¤": 6226,
      "èº«åĬ¨": 6227,
      "èº«éĿ¢": 6228,
      "èº«ä½ł": 6229,
      "èº«åĽ½": 6230,
      "èº«åĩº": 6231,
      "èº«èĩª": 6232,
      "èº«äºº": 6233,
      "èº«éķ¿": 6234,
      "èº«æľĢ": 6235,
      "èº«éģĵ": 6236,
      "èº«å¾Ī": 6237,
      "èº«è¯Ŀ": 6238,
      "èº«åħ¶": 6239,
      "èº«é«ĺ": 6240,
      "èº«åĽŀ": 6241,
      "èº«äºİ": 6242,
      "èº«åŃĲè¿ĩ": 6243,
      "èº«æ²¡éĥ½": 6244,
      "èº«æĸ¯å¤ļ": 6245,
      "èº«ç¾İå®¶": 6246,
      "èº«æĪĲåıªåĦ¿": 6247,
      "èº«æľŁä¸ĭ": 6248,
      "èº«æĺ¯å·²": 6249,
      "éĩĮéĥ½": 6250,
      "éĩĮè¿ĺ": 6251,
      "éĩĮæľŁ": 6252,
      "éĩĮåľ°": 6253,
      "éĩĮæ¬¡": 6254,
      "éĩĮè¿Ļ": 6255,
      "éĩĮåĲį": 6256,
      "éĩĮä»İ": 6257,
      "éĩĮå¼Ģ": 6258,
      "éĩĮè¦ģ": 6259,
      "éĩĮå·±": 6260,
      "éĩĮä¹Ī": 6261,
      "éĩĮåĽ½": 6262,
      "éĩĮäºº": 6263,
      "éĩĮäºĽ": 6264,
      "éĩĮåľ¨": 6265,
      "éĩĮåŃĲ": 6266,
      "éĩĮçĶŁ": 6267,
      "éĩĮçŁ¥": 6268,
      "éĩĮåĽł": 6269,
      "éĩĮçļĦå®¶": 6270,
      "éĩĮéĿ¢åĲĮ": 6271,
      "éĩĮç¬¬å¤ļ": 6272,
      "éĩĮä¹ĭåľ°": 6273,
      "éĩĮä¸Ńè¿ĺ": 6274,
      "éĩĮæĦıçŁ¥": 6275,
      "éĩĮåīįå°±": 6276,
      "éĩĮåıªåľ¨éĿ¢": 6277,
      "éĩĮå°±å¤©ä¹Ł": 6278,
      "éĩĮäºĭç»Ļ": 6279,
      "ä¹Łè¡Į": 6280,
      "ä¹ŁåĴĮ": 6281,
      "ä¹Łå¤©": 6282,
      "ä¹Łå°±": 6283,
      "ä¹Łä¹Ł": 6284,
      "ä¹Łæ¬¡": 6285,
      "ä¹Łå¥¹": 6286,
      "ä¹Łå¯¹": 6287,
      "ä¹Łä¸¤": 6288,
      "ä¹ŁæĪĳ": 6289,
      "ä¹ŁæĬĬ": 6290,
      "ä¹Łè¦ģ": 6291,
      "ä¹ŁæĹ¥": 6292,
      "ä¹ŁåĬ¨": 6293,
      "ä¹Łè¢«": 6294,
      "ä¹ŁéĿ¢": 6295,
      "ä¹ŁèĢģ": 6296,
      "ä¹Łèĩª": 6297,
      "ä¹Łäºº": 6298,
      "ä¹ŁèĢħ": 6299,
      "ä¹ŁäºĽ": 6300,
      "ä¹Łæĸ¹": 6301,
      "ä¹Łçľĭ": 6302,
      "ä¹Łä»ĸ": 6303,
      "ä¹Łå¹´": 6304,
      "ä¹Łå¿ĥ": 6305,
      "ä¹ŁçŁ¥": 6306,
      "ä¹Łèĥ½": 6307,
      "ä¹Łä¸İç»Ļ": 6308,
      "ä¹Łæĺ¯ä¸¤": 6309,
      "ä¹Łå¥³åĪ°": 6310,
      "ä¹Łåıĳè¿ĺ": 6311,
      "ä¹Łå¾Ĺä¸Ĭ": 6312,
      "ä¹Łæīĭè¿Ļ": 6313,
      "ä¹Łä¼ļè¿Ľäºĭ": 6314,
      "æĦŁä¹ĭ": 6315,
      "æĦŁå¤´": 6316,
      "æĦŁåĴĮ": 6317,
      "æĦŁéĥ½": 6318,
      "æĦŁä¸Ń": 6319,
      "æĦŁèº«": 6320,
      "æĦŁæĦŁ": 6321,
      "æĦŁæ¬¡": 6322,
      "æĦŁè¿ĩ": 6323,
      "æĦŁå¸¸": 6324,
      "æĦŁæĿ¥": 6325,
      "æĦŁçĿĢ": 6326,
      "æĦŁå½ĵ": 6327,
      "æĦŁæĬĬ": 6328,
      "æĦŁä¸ª": 6329,
      "æĦŁåĽ½": 6330,
      "æĦŁåĩº": 6331,
      "æĦŁæĹł": 6332,
      "æĦŁåĪ°": 6333,
      "æĦŁåĪĨ": 6334,
      "æĦŁä½¿": 6335,
      "æĦŁçĶ¨": 6336,
      "æĦŁçĪ±": 6337,
      "æĦŁå¥¹äºĭ": 6338,
      "æĦŁçĶŁæľī": 6339,
      "æĦŁçĪ±æĪĳ": 6340,
      "æĦŁä¸¤åĬ¨": 6341,
      "æĦŁä¸ĢéĤ£": 6342,
      "æĦŁä¸ĬåŃĲ": 6343,
      "æĦŁæĪĲéĥ½": 6344,
      "æĦŁå°±ä»İä¸Ń": 6345,
      "æĦŁéĩĮäºĽ": 6346,
      "æ¬¡æ³ķ": 6347,
      "æ¬¡æĸ¯": 6348,
      "æ¬¡åľ°": 6349,
      "æ¬¡çļĦ": 6350,
      "æ¬¡è¿ĩ": 6351,
      "æ¬¡ä»İ": 6352,
      "æ¬¡ç»Ļ": 6353,
      "æ¬¡è¢«": 6354,
      "æ¬¡ä¸ª": 6355,
      "æ¬¡æĹ¶": 6356,
      "æ¬¡çĦ¶": 6357,
      "æ¬¡æĥ³": 6358,
      "æ¬¡æĦı": 6359,
      "æ¬¡æľĢ": 6360,
      "æ¬¡çĶ¨": 6361,
      "æ¬¡éĹ´": 6362,
      "æ¬¡äº²çŁ¥": 6363,
      "æ¬¡è¿ĺéĥ½": 6364,
      "æ¬¡ä¸ĭäºĨ": 6365,
      "æ¬¡èº«åıĪ": 6366,
      "æ¬¡åĽ½åĲİ": 6367,
      "æ¬¡æľīè¢«": 6368,
      "æ¬¡äºĽåİ»": 6369,
      "æ¬¡æĪĲä¸Ń": 6370,
      "æ¬¡æĦŁçĪ±": 6371,
      "çļĦä¸ĭ": 6372,
      "çļĦä»¥": 6373,
      "çļĦæĿ¥": 6374,
      "çļĦä¸º": 6375,
      "çļĦæŃ£": 6376,
      "çļĦåıĳ": 6377,
      "çļĦæĪĳ": 6378,
      "çļĦä»¬": 6379,
      "çļĦæĹ¥": 6380,
      "çļĦè¢«": 6381,
      "çļĦèĩª": 6382,
      "çļĦæīĢ": 6383,
      "çļĦæĸ¹": 6384,
      "çļĦåŃĲ": 6385,
      "çļĦçİ°": 6386,
      "çļĦè¿Ľ": 6387,
      "çļĦè¯Ŀ": 6388,
      "çļĦå°ı": 6389,
      "çļĦçİ°äº²": 6390,
      "çļĦåĽŀæŃ¤": 6391,
      "çļĦä¸Ńæ´»": 6392,
      "çļĦæĺ¯çİ°": 6393,
      "çļĦä»Ģå¸¸": 6394,
      "çļĦæŃ¤åıĪ": 6395,
      "çļĦæĦıèĢĮ": 6396,
      "çļĦåľ¨èĢĮ": 6397,
      "çļĦå¾Īæĥħ": 6398,
      "çļĦåľ°ä»¬": 6399,
      "ä»¥æĪĲ": 6400,
      "ä»¥åĴĮ": 6401,
      "ä»¥æ²¡": 6402,
      "ä»¥æīĭ": 6403,
      "ä»¥èº«": 6404,
      "ä»¥ä»¬": 6405,
      "ä»¥æŃ¤": 6406,
      "ä»¥ä¹Ī": 6407,
      "ä»¥èĢģ": 6408,
      "ä»¥çĦ¶": 6409,
      "ä»¥åīį": 6410,
      "ä»¥äºº": 6411,
      "ä»¥éķ¿": 6412,
      "ä»¥éģĵ": 6413,
      "ä»¥ä¸Ģ": 6414,
      "ä»¥ä¸Ĭ": 6415,
      "ä»¥ç§į": 6416,
      "ä»¥éĥ½å¤§": 6417,
      "ä»¥æīĭè¿Ľ": 6418,
      "ä»¥éĥ½åıĳ": 6419,
      "ä»¥æĸ¯å¦Ĥ": 6420,
      "ä»¥å®¶æ²¡": 6421,
      "ä»¥ä¹ŁåĽł": 6422,
      "ä»¥æĹ¶èµ·": 6423,
      "ä»¥å°ıå¤´": 6424,
      "ä»¥è¡Įè¿Ļ": 6425,
      "ä»¥éĥ½çĶŁ": 6426,
      "è¿ĩç¾İ": 6427,
      "è¿ĩéĥ½": 6428,
      "è¿ĩå®¶": 6429,
      "è¿ĩèµ·": 6430,
      "è¿ĩå¥¹": 6431,
      "è¿ĩä»İ": 6432,
      "è¿ĩè¯´": 6433,
      "è¿ĩå¼Ģ": 6434,
      "è¿ĩæĥħ": 6435,
      "è¿ĩåıĪ": 6436,
      "è¿ĩèĩª": 6437,
      "è¿ĩæĹł": 6438,
      "è¿ĩåĪ°": 6439,
      "è¿ĩäºĽ": 6440,
      "è¿ĩåŃĲ": 6441,
      "è¿ĩä¸Ģ": 6442,
      "è¿ĩä»ĸ": 6443,
      "è¿ĩçŁ¥": 6444,
      "è¿ĩç§į": 6445,
      "è¿ĩä¸¤è¿Ľ": 6446,
      "è¿ĩå®¶æ³ķ": 6447,
      "è¿ĩèµ·çĪ±": 6448,
      "è¿ĩèĢĮåĩº": 6449,
      "è¿ĩåĴĮçĦ¶": 6450,
      "è¿ĩä½įå¾Ī": 6451,
      "è¿ĩä¸ŃæĹ¶": 6452,
      "è¿ĩæīĭæ¬¡": 6453,
      "è¿ĩä¸ĭäºĽ": 6454,
      "è¿ĩè¿ĩèµ·": 6455,
      "èĢĮè¿ĺ": 6456,
      "èĢĮä¸Ń": 6457,
      "èĢĮå°±": 6458,
      "èĢĮè¿Ļ": 6459,
      "èĢĮä¸º": 6460,
      "èĢĮæł·": 6461,
      "èĢĮå¥³": 6462,
      "èĢĮæŃ£": 6463,
      "èĢĮç»Ļ": 6464,
      "èĢĮä¸ª": 6465,
      "èĢĮæĹ¶": 6466,
      "èĢĮæīĢ": 6467,
      "èĢĮæĥ³": 6468,
      "èĢĮèĢħ": 6469,
      "èĢĮäºĽ": 6470,
      "èĢĮå¤ļ": 6471,
      "èĢĮæĸ¹": 6472,
      "èĢĮçĶŁ": 6473,
      "èĢĮä½¿": 6474,
      "èĢĮè¯Ŀ": 6475,
      "èĢĮä¸Ĭ": 6476,
      "èĢĮä¸¤è¿Ľ": 6477,
      "èĢĮä¸įåĩº": 6478,
      "èĢĮåıĳçĶ¨": 6479,
      "èĢĮå¹´åĪ°": 6480,
      "èĢĮæĦŁéĩĮäºĽ": 6481,
      "èĢĮè¿ĩèĢĮåĩº": 6482,
      "å¸¸ä½į": 6483,
      "å¸¸æľŁ": 6484,
      "å¸¸æīĭ": 6485,
      "å¸¸æĦŁ": 6486,
      "å¸¸æ¬¡": 6487,
      "å¸¸äº²": 6488,
      "å¸¸åĲį": 6489,
      "å¸¸ä»İ": 6490,
      "å¸¸æŃ£": 6491,
      "å¸¸ç»ı": 6492,
      "å¸¸åıĳ": 6493,
      "å¸¸æĬĬ": 6494,
      "å¸¸ä»¬": 6495,
      "å¸¸æŃ¤": 6496,
      "å¸¸åĬ¨": 6497,
      "å¸¸è¢«": 6498,
      "å¸¸åıĪ": 6499,
      "å¸¸åĲİ": 6500,
      "å¸¸æľī": 6501,
      "å¸¸èĢħ": 6502,
      "å¸¸æĹł": 6503,
      "å¸¸åŃĲ": 6504,
      "å¸¸å¾Ī": 6505,
      "å¸¸è¿Ľ": 6506,
      "å¸¸ä¸Ĭ": 6507,
      "å¸¸åĲĮ": 6508,
      "å¸¸ç¬¬": 6509,
      "å¸¸éĹ´": 6510,
      "å¸¸äºİ": 6511,
      "å¸¸å¥½è¡Į": 6512,
      "å¸¸ä¸Ńå¤ļ": 6513,
      "å¸¸æĪĲèĢĮ": 6514,
      "å¸¸è¿ĺæĦı": 6515,
      "å¸¸ä¸ŃçļĦ": 6516,
      "å¸¸äºĭä½Ĩå¥½å¼Ģ": 6517,
      "å¸¸éĩĮå·±": 6518,
      "è¿Ļè¡Į": 6519,
      "è¿Ļæĺ¯": 6520,
      "è¿Ļèµ·": 6521,
      "è¿Ļå¥¹": 6522,
      "è¿Ļä»İ": 6523,
      "è¿Ļå·²": 6524,
      "è¿ĻåŃ¦": 6525,
      "è¿Ļä¸¤": 6526,
      "è¿Ļå¼Ģ": 6527,
      "è¿Ļä»Ģ": 6528,
      "è¿Ļè¢«": 6529,
      "è¿Ļä¸ª": 6530,
      "è¿Ļå¤§": 6531,
      "è¿ĻåĲİ": 6532,
      "è¿Ļåĩº": 6533,
      "è¿ĻçĦ¶": 6534,
      "è¿Ļèĩª": 6535,
      "è¿Ļäºº": 6536,
      "è¿ĻæĢ»": 6537,
      "è¿Ļæĸ¹": 6538,
      "è¿Ļéģĵ": 6539,
      "è¿Ļå¾Ī": 6540,
      "è¿Ļåħ¶": 6541,
      "è¿ĻåĲĮ": 6542,
      "è¿ĻåĽŀ": 6543,
      "è¿Ļç¬¬": 6544,
      "è¿ĻçĪ±": 6545,
      "è¿Ļæĺ¯æĺ¯": 6546,
      "è¿ĻæľĢèĢģ": 6547,
      "è¿ĻæĪĲåĪĨ": 6548,
      "è¿ĻéĩĮä½ľ": 6549,
      "è¿Ļå¦Ĥç»ı": 6550,
      "è¿Ļéķ¿åľ¨": 6551,
      "è¿ĻåŃĲæĹ¥": 6552,
      "è¿Ļå°ıå¥½": 6553,
      "è¿Ļå¤´åĲİ": 6554,
      "è¿ĻæĪĲåŃĲ": 6555,
      "è¿Ļæĸ¯éģĵ": 6556,
      "è¿Ļå®¶è¡Įä¸į": 6557,
      "è¿Ļä½Ĩä½ľ": 6558,
      "è¿Ļäºĭå¾Ī": 6559,
      "è¿ĻéĩĮè¿Ļ": 6560,
      "æĿ¥ç¾İ": 6561,
      "æĿ¥ä½į": 6562,
      "æĿ¥æĸ¯": 6563,
      "æĿ¥å®¶": 6564,
      "æĿ¥æĦŁ": 6565,
      "æĿ¥å¥¹": 6566,
      "æĿ¥çĿĢ": 6567,
      "æĿ¥ä»İ": 6568,
      "æĿ¥å½ĵ": 6569,
      "æĿ¥åĬ¨": 6570,
      "æĿ¥ä½ł": 6571,
      "æĿ¥å·±": 6572,
      "æĿ¥ä¹Ī": 6573,
      "æĿ¥ä½ľ": 6574,
      "æĿ¥å¿ĥ": 6575,
      "æĿ¥è¯Ŀ": 6576,
      "æĿ¥é«ĺ": 6577,
      "æĿ¥å®ĥ": 6578,
      "æĿ¥åĽŀ": 6579,
      "æĿ¥çĶ¨": 6580,
      "æĿ¥ç§į": 6581,
      "æĿ¥éĥ½åĪ°": 6582,
      "æĿ¥èĢĮåĽł": 6583,
      "æĿ¥äº²æ²¡": 6584,
      "æĿ¥ä¸¤èĢĮ": 6585,
      "æĿ¥ä¸Ĭå¯¹": 6586,
      "æĿ¥å¤´æŃ¤": 6587,
      "æĿ¥éĥ½ä¸¤": 6588,
      "æĿ¥æľŁä¸Ģ": 6589,
      "æĿ¥äºĭä¹Ī": 6590,
      "æĿ¥ä¼ļæĪĳ": 6591,
      "æĿ¥èĢĮå¹´åĪ°": 6592,
      "ä¸ºäº²": 6593,
      "ä¸ºäºĨ": 6594,
      "ä¸ºå¯¹": 6595,
      "ä¸ºæĬĬ": 6596,
      "ä¸ºå·±": 6597,
      "ä¸ºæĢ»": 6598,
      "ä¸ºæĹł": 6599,
      "ä¸ºäºĽ": 6600,
      "ä¸ºå¤ļ": 6601,
      "ä¸ºçľĭ": 6602,
      "ä¸ºçİ°": 6603,
      "ä¸ºåħ¶": 6604,
      "ä¸ºå°ı": 6605,
      "ä¸ºçĶ¨": 6606,
      "ä¸ºè¿ĺé«ĺ": 6607,
      "ä¸ºä»Ģå°±": 6608,
      "ä¸ºä½łå®¶": 6609,
      "ä¸ºä¹ĭåıª": 6610,
      "ä¸ºä¸Ńä¸¤": 6611,
      "ä¸ºä½Ĩå°ı": 6612,
      "ä¸ºéĩĮæĪĲ": 6613,
      "ä¸ºåıĳåıª": 6614,
      "ä¸ºæīĭæľŁæĺ¯": 6615,
      "ä¸ºæĿ¥ä»İ": 6616,
      "å¥¹ä¹ĭ": 6617,
      "å¥¹ä½į": 6618,
      "å¥¹æ²¡": 6619,
      "å¥¹éĥ½": 6620,
      "å¥¹èĢĮ": 6621,
      "å¥¹å¸¸": 6622,
      "å¥¹çĿĢ": 6623,
      "å¥¹æŃ£": 6624,
      "å¥¹å¦Ĥ": 6625,
      "å¥¹ä¸İ": 6626,
      "å¥¹åıĳ": 6627,
      "å¥¹æĥħ": 6628,
      "å¥¹ä¹Ī": 6629,
      "å¥¹æľī": 6630,
      "å¥¹åīį": 6631,
      "å¥¹æĹł": 6632,
      "å¥¹åĪĨ": 6633,
      "å¥¹æĸ¹": 6634,
      "å¥¹çľĭ": 6635,
      "å¥¹è¿Ľ": 6636,
      "å¥¹è¯Ŀ": 6637,
      "å¥¹èĥ½": 6638,
      "å¥¹éĹ´": 6639,
      "å¥¹å¦Ĥä¸İ": 6640,
      "å¥¹è¡Įä¹Ī": 6641,
      "å¥¹ç¾İå¾Ĺ": 6642,
      "å¥¹ä¸ºä¸İ": 6643,
      "å¥¹æľŁè¦ģåıª": 6644,
      "å¥¹æīĭè¢«": 6645,
      "å¥¹å°±çİ°": 6646,
      "äº²è¡Į": 6647,
      "äº²ç¾İ": 6648,
      "äº²äºĭ": 6649,
      "äº²å¥¹": 6650,
      "äº²äº²": 6651,
      "äº²æł·": 6652,
      "äº²æŃ£": 6653,
      "äº²ç»ı": 6654,
      "äº²æĪĳ": 6655,
      "äº²ä¸į": 6656,
      "äº²æŃ¤": 6657,
      "äº²å¤§": 6658,
      "äº²åıĪ": 6659,
      "äº²åĩº": 6660,
      "äº²æīĢ": 6661,
      "äº²æĥ³": 6662,
      "äº²åīį": 6663,
      "äº²èĢħ": 6664,
      "äº²åĦ¿": 6665,
      "äº²åĪ°": 6666,
      "äº²åľ¨": 6667,
      "äº²åŃĲ": 6668,
      "äº²ä¸Ģ": 6669,
      "äº²çİ°": 6670,
      "äº²å°ı": 6671,
      "äº²æ´»": 6672,
      "äº²åĽŀ": 6673,
      "äº²å¥½è¡Į": 6674,
      "äº²ä¹ĭåĪĨ": 6675,
      "äº²ä¸ªçľĭ": 6676,
      "äº²åĪĨè¢«": 6677,
      "äº²åĴĮåŃĲå¦Ĥ": 6678,
      "äº²éĥ½åĲĮ": 6679,
      "äº²ä¸ĭæĪĲå¤´": 6680,
      "äº²éĩĮæĦıçŁ¥": 6681,
      "äº²æĦŁèº«": 6682,
      "æł·å¾Ĺ": 6683,
      "æł·èº«": 6684,
      "æł·å·²": 6685,
      "æł·ä¸İ": 6686,
      "æł·å¼Ģ": 6687,
      "æł·æĹ¥": 6688,
      "æł·åĬ¨": 6689,
      "æł·è¢«": 6690,
      "æł·å·±": 6691,
      "æł·ä¸ĸ": 6692,
      "æł·åıĪ": 6693,
      "æł·æīĢ": 6694,
      "æł·åĪ°": 6695,
      "æł·æĸ¹": 6696,
      "æł·åľ¨": 6697,
      "æł·ä½ľ": 6698,
      "æł·è¿Ľ": 6699,
      "æł·åİ»": 6700,
      "æł·çŁ¥": 6701,
      "æł·ä¸Ĭ": 6702,
      "æł·èĥ½": 6703,
      "æł·å°ı": 6704,
      "æł·æ´»": 6705,
      "æł·çĶ¨": 6706,
      "æł·ä¸Ńå·²": 6707,
      "æł·ä½łä¹Ł": 6708,
      "æł·ç¾İæĹ¥": 6709,
      "æł·ä½įçŁ¥": 6710,
      "æł·æīĭæīĭ": 6711,
      "æł·éĿ¢æĪĲ": 6712,
      "æł·åĦ¿åİ»": 6713,
      "æł·åĽłä¸ĭ": 6714,
      "æł·éĥ½è¿ĩ": 6715,
      "æł·ä»¥ç§į": 6716,
      "æł·è¿ĩæĥħ": 6717,
      "çĿĢä¹ĭ": 6718,
      "çĿĢèĢĮ": 6719,
      "çĿĢä»İ": 6720,
      "çĿĢæŃ£": 6721,
      "çĿĢç»ı": 6722,
      "çĿĢä¸¤": 6723,
      "çĿĢåıĳ": 6724,
      "çĿĢä¸ĸ": 6725,
      "çĿĢèĩª": 6726,
      "çĿĢæīĢ": 6727,
      "çĿĢæľī": 6728,
      "çĿĢäºº": 6729,
      "çĿĢæĢ»": 6730,
      "çĿĢåĪ°": 6731,
      "çĿĢçĶŁ": 6732,
      "çĿĢåı¯": 6733,
      "çĿĢåĽŀ": 6734,
      "çĿĢäºİ": 6735,
      "çĿĢåıªæĹł": 6736,
      "çĿĢå®¶å·±": 6737,
      "çĿĢäºĭä¸ĭ": 6738,
      "çĿĢæĺ¯ä¸İ": 6739,
      "çĿĢèµ·æŃ£": 6740,
      "çĿĢä¸ºæĹ¥": 6741,
      "çĿĢåĲİèĢħ": 6742,
      "çĿĢèĢħæ³ķ": 6743,
      "çĿĢäºĽä½į": 6744,
      "çĿĢæĸ¹åĲĮ": 6745,
      "çĿĢåŃĲç»Ļ": 6746,
      "çĿĢä¸ĢçĿĢ": 6747,
      "çĿĢç¬¬å¹´": 6748,
      "çĿĢä½ĨåŃ¦ä»Ģ": 6749,
      "çĿĢå°±å®ĥ": 6750,
      "çĿĢå¥¹ç¾İå¾Ĺ": 6751,
      "éĤ£å¤©": 6752,
      "éĤ£èĢĮ": 6753,
      "éĤ£è¿Ļ": 6754,
      "éĤ£åĲį": 6755,
      "éĤ£å¯¹": 6756,
      "éĤ£ç»ı": 6757,
      "éĤ£ç»Ļ": 6758,
      "éĤ£æŃ¤": 6759,
      "éĤ£ä¸ĸ": 6760,
      "éĤ£å¤§": 6761,
      "éĤ£èĢģ": 6762,
      "éĤ£çĦ¶": 6763,
      "éĤ£èĩª": 6764,
      "éĤ£æľī": 6765,
      "éĤ£å¤ļ": 6766,
      "éĤ£æĸ¹": 6767,
      "éĤ£çİ°": 6768,
      "éĤ£èĥ½": 6769,
      "éĤ£çĪ±": 6770,
      "éĤ£è¿ĺåıĪ": 6771,
      "éĤ£ç¾İä»Ģ": 6772,
      "éĤ£çļĦçĦ¶": 6773,
      "éĤ£è¦ģå¼Ģ": 6774,
      "éĤ£ä¸ĢåĪ°": 6775,
      "éĤ£çĶŁèĥ½": 6776,
      "éĤ£åľ°åĲĮ": 6777,
      "éĤ£äºĭä¸Ģ": 6778,
      "äºĨå¤´": 6779,
      "äºĨæĪĲ": 6780,
      "äºĨä»¥": 6781,
      "äºĨå·²": 6782,
      "äºĨç»ı": 6783,
      "äºĨä¸¤": 6784,
      "äºĨä¸İ": 6785,
      "äºĨæĪĳ": 6786,
      "äºĨæŃ¤": 6787,
      "äºĨæĥħ": 6788,
      "äºĨè¢«": 6789,
      "äºĨåĽ½": 6790,
      "äºĨçĦ¶": 6791,
      "äºĨæīĢ": 6792,
      "äºĨæľī": 6793,
      "äºĨäºº": 6794,
      "äºĨæĹł": 6795,
      "äºĨåĪĨ": 6796,
      "äºĨå¤ļ": 6797,
      "äºĨæľĢ": 6798,
      "äºĨçĶŁ": 6799,
      "äºĨåİ»": 6800,
      "äºĨåĲĮ": 6801,
      "äºĨåĽŀ": 6802,
      "äºĨå¾Ĺè¿Ľ": 6803,
      "äºĨåıĪåıª": 6804,
      "äºĨä½ĨçĦ¶": 6805,
      "äºĨæĦŁéģĵ": 6806,
      "äºĨå½ĵä½¿": 6807,
      "äºĨæĦıçļĦ": 6808,
      "äºĨä¹ĭæŃ¤": 6809,
      "äºĨåľ°æĥ³": 6810,
      "äºĨæĺ¯å¤©": 6811,
      "åĲįåĴĮ": 6812,
      "åĲįéĥ½": 6813,
      "åĲįäº²": 6814,
      "åĲįåĲį": 6815,
      "åĲįä»İ": 6816,
      "åĲįç»ı": 6817,
      "åĲįå¼Ģ": 6818,
      "åĲįä¸ª": 6819,
      "åĲįä¹Ī": 6820,
      "åĲįèĢģ": 6821,
      "åĲįåĩº": 6822,
      "åĲįæĦı": 6823,
      "åĲįäºº": 6824,
      "åĲįåĪ°": 6825,
      "åĲįåİ»": 6826,
      "åĲįä¸Ĭ": 6827,
      "åĲįèĥ½": 6828,
      "åĲįçĶ¨": 6829,
      "åĲįéĹ´": 6830,
      "åĲįè¿ĺåĴĮ": 6831,
      "åĲįçĿĢå¾Ī": 6832,
      "åĲįä½Ĩä¸¤": 6833,
      "åĲįä¸ºéĤ£": 6834,
      "åĲįèĢħæĸ¯": 6835,
      "åĲįå¿ĥä½ł": 6836,
      "åĲįåĽŀæľŁ": 6837,
      "åĲįå¤´æ´»": 6838,
      "åĲįå¤©çĦ¶": 6839,
      "åĲįäºĭæ¬¡": 6840,
      "åĲįå¸¸æ¬¡": 6841,
      "ä»İå¤©": 6842,
      "ä»İæĸ¯": 6843,
      "ä»İæīĭ": 6844,
      "ä»İèµ·": 6845,
      "ä»İå¥³": 6846,
      "ä»İå½ĵ": 6847,
      "ä»İåŃ¦": 6848,
      "ä»İå¦Ĥ": 6849,
      "ä»İä»Ģ": 6850,
      "ä»İè¢«": 6851,
      "ä»İéĿ¢": 6852,
      "ä»İä¸ĸ": 6853,
      "ä»İæĹ¶": 6854,
      "ä»İåĲİ": 6855,
      "ä»İåĽ½": 6856,
      "ä»İåĦ¿": 6857,
      "ä»İæĹł": 6858,
      "ä»İäºĽ": 6859,
      "ä»İçľĭ": 6860,
      "ä»İä»ĸ": 6861,
      "ä»İè¯Ŀ": 6862,
      "ä»İä¸Ĭ": 6863,
      "ä»İå¥½è¿ĺ": 6864,
      "ä»İèº«åıĪ": 6865,
      "ä»İè¿ĻçļĦ": 6866,
      "ä»İæŃ¤éĹ´": 6867,
      "ä»İéģĵå¥³": 6868,
      "ä»İå¾ĹæĹ¥": 6869,
      "ä»İäºĨåıĪåıª": 6870,
      "å¥³å¤´": 6871,
      "å¥³æľŁ": 6872,
      "å¥³æīĭ": 6873,
      "å¥³èµ·": 6874,
      "å¥³èº«": 6875,
      "å¥³èĢĮ": 6876,
      "å¥³ç»ı": 6877,
      "å¥³è¦ģ": 6878,
      "å¥³ä¸į": 6879,
      "å¥³æŃ¤": 6880,
      "å¥³ä¸ª": 6881,
      "å¥³å¤§": 6882,
      "å¥³æľī": 6883,
      "å¥³åĦ¿": 6884,
      "å¥³å¥½": 6885,
      "å¥³æĹł": 6886,
      "å¥³éģĵ": 6887,
      "å¥³å¾Ī": 6888,
      "å¥³è¿Ľ": 6889,
      "å¥³é«ĺ": 6890,
      "å¥³åĽŀ": 6891,
      "å¥³åĽł": 6892,
      "å¥³äºİ": 6893,
      "å¥³çĪ±": 6894,
      "å¥³å¦Ĥåı¯": 6895,
      "å¥³åĴĮå¤´": 6896,
      "å¥³å¥¹çļĦ": 6897,
      "å¥³è¡Įæĺ¯æŃ£": 6898,
      "å¥³å¸¸æŃ¤": 6899,
      "æŃ£ä¹ĭ": 6900,
      "æŃ£åĴĮ": 6901,
      "æŃ£æ³ķ": 6902,
      "æŃ£æĸ¯": 6903,
      "æŃ£å¥³": 6904,
      "æŃ£å¼Ģ": 6905,
      "æŃ£æŃ¤": 6906,
      "æŃ£æĥħ": 6907,
      "æŃ£èĢģ": 6908,
      "æŃ£æĹ¶": 6909,
      "æŃ£åĦ¿": 6910,
      "æŃ£åĪ°": 6911,
      "æŃ£æĸ¹": 6912,
      "æŃ£åŃĲ": 6913,
      "æŃ£éģĵ": 6914,
      "æŃ£å¾Ī": 6915,
      "æŃ£å¹´": 6916,
      "æŃ£çŁ¥": 6917,
      "æŃ£èĥ½": 6918,
      "æŃ£å®ĥ": 6919,
      "æŃ£ç§į": 6920,
      "æŃ£äºİ": 6921,
      "æŃ£ä¸Ģåĩº": 6922,
      "æŃ£æľŁå¯¹": 6923,
      "æŃ£æľŁä¸ĸ": 6924,
      "æŃ£å¸¸æĸ¹": 6925,
      "æŃ£ä¸įçĦ¶": 6926,
      "æŃ£çİ°å½ĵ": 6927,
      "æŃ£ä¸Ĭå¥¹": 6928,
      "æŃ£å¤´éĹ´": 6929,
      "æŃ£å¤©æĥħå¤´": 6930,
      "æŃ£å°±ä»Ģ": 6931,
      "æŃ£æĦŁåĴĮ": 6932,
      "æŃ£éĤ£å¤ļ": 6933,
      "å·²ä½į": 6934,
      "å·²æ²¡": 6935,
      "å·²åıª": 6936,
      "å·²ä¸ĭ": 6937,
      "å·²æŃ£": 6938,
      "å·²ä¸¤": 6939,
      "å·²ç»Ļ": 6940,
      "å·²è¦ģ": 6941,
      "å·²ä¸į": 6942,
      "å·²ä»Ģ": 6943,
      "å·²æĥħ": 6944,
      "å·²åĬ¨": 6945,
      "å·²ä½ł": 6946,
      "å·²å¤§": 6947,
      "å·²æīĢ": 6948,
      "å·²æľī": 6949,
      "å·²æĹł": 6950,
      "å·²åĪ°": 6951,
      "å·²éģĵ": 6952,
      "å·²è¯Ŀ": 6953,
      "å·²ç¬¬": 6954,
      "å·²åĪĨæĪĲ": 6955,
      "å·²è¯Ŀä»¬": 6956,
      "å·²è¿ĻèĢģ": 6957,
      "å·²è¿Ľäºĭ": 6958,
      "å·²æĺ¯å¿ĥ": 6959,
      "å·²åĲįçĿĢå¾Ī": 6960,
      "å½ĵè¡Į": 6961,
      "å½ĵå¤©": 6962,
      "å½ĵä¼ļ": 6963,
      "å½ĵéĩĮ": 6964,
      "å½ĵä»¥": 6965,
      "å½ĵå¯¹": 6966,
      "å½ĵä»Ģ": 6967,
      "å½ĵåĬ¨": 6968,
      "å½ĵä½ł": 6969,
      "å½ĵä¹Ī": 6970,
      "å½ĵçĦ¶": 6971,
      "å½ĵæĹł": 6972,
      "å½ĵä½ľ": 6973,
      "å½ĵä»ĸ": 6974,
      "å½ĵè¯Ŀ": 6975,
      "å½ĵç§į": 6976,
      "å½ĵä½įä¸º": 6977,
      "å½ĵæ²¡ä¸º": 6978,
      "å½ĵæĬĬç¾İ": 6979,
      "å½ĵä½įçĶŁ": 6980,
      "å½ĵéĥ½å¤´": 6981,
      "å½ĵæĸ¯åĩº": 6982,
      "å½ĵæĿ¥èĢĮåĽł": 6983,
      "å½ĵäº²åĪĨè¢«": 6984,
      "å½ĵéĤ£ç»ı": 6985,
      "å¯¹ä½Ĩ": 6986,
      "å¯¹è¿ĩ": 6987,
      "å¯¹äº²": 6988,
      "å¯¹å·²": 6989,
      "å¯¹å¦Ĥ": 6990,
      "å¯¹ä¸İ": 6991,
      "å¯¹æĬĬ": 6992,
      "å¯¹ä¸ª": 6993,
      "å¯¹ä½ł": 6994,
      "å¯¹ä¸ĸ": 6995,
      "å¯¹åıĪ": 6996,
      "å¯¹åĲİ": 6997,
      "å¯¹æīĢ": 6998,
      "å¯¹æľī": 6999,
      "å¯¹åīį": 7000,
      "å¯¹å¥½": 7001,
      "å¯¹éķ¿": 7002,
      "å¯¹æľĢ": 7003,
      "å¯¹ä½ľ": 7004,
      "å¯¹çŁ¥": 7005,
      "å¯¹èĥ½": 7006,
      "å¯¹åĽł": 7007,
      "å¯¹ä¹ĭåıª": 7008,
      "å¯¹å¥¹ç¬¬": 7009,
      "å¯¹ä»Ģç§į": 7010,
      "å¯¹ç¾İæĦı": 7011,
      "å¯¹æĺ¯ä¸ĭ": 7012,
      "å¯¹èº«æĸ¯": 7013,
      "å¯¹æĦŁä½¿": 7014,
      "å¯¹æĿ¥çĿĢ": 7015,
      "å¯¹ä¸ºä¸Ńä¸¤": 7016,
      "å¯¹éĤ£å¤©": 7017,
      "å¯¹æŃ£æľŁå¯¹": 7018,
      "å¯¹å½ĵä½įä¸º": 7019,
      "Ġå®¶ç¾İ": 7020,
      "Ġå®¶ä½Ĩ": 7021,
      "Ġå®¶æīĭ": 7022,
      "Ġå®¶ä¸ĭ": 7023,
      "Ġå®¶éĩĮ": 7024,
      "Ġå®¶å¥¹": 7025,
      "Ġå®¶å·²": 7026,
      "Ġå®¶ç»ı": 7027,
      "Ġå®¶åŃ¦": 7028,
      "Ġå®¶è¯´": 7029,
      "Ġå®¶ä¸¤": 7030,
      "Ġå®¶æĬĬ": 7031,
      "Ġå®¶ä»Ģ": 7032,
      "Ġå®¶æŃ¤": 7033,
      "Ġå®¶åĬ¨": 7034,
      "Ġå®¶ä¸ª": 7035,
      "Ġå®¶å¤§": 7036,
      "Ġå®¶åıĪ": 7037,
      "Ġå®¶èĢģ": 7038,
      "Ġå®¶æĥ³": 7039,
      "Ġå®¶æĹł": 7040,
      "Ġå®¶äºĽ": 7041,
      "Ġå®¶éģĵ": 7042,
      "Ġå®¶ä¸Ģ": 7043,
      "Ġå®¶å¾Ī": 7044,
      "Ġå®¶ä»ĸ": 7045,
      "Ġå®¶åħ¶": 7046,
      "Ġå®¶å®ĥ": 7047,
      "Ġå®¶ç¬¬": 7048,
      "Ġå®¶çĪ±": 7049,
      "Ġå®¶åıªéķ¿": 7050,
      "Ġå®¶ç»Ļæľī": 7051,
      "Ġå®¶è¦ģæĸ¹": 7052,
      "Ġå®¶è¢«ä»ĸ": 7053,
      "Ġå®¶å¥½æ¬¡": 7054,
      "Ġå®¶éĥ½åľ°": 7055,
      "Ġå®¶è¿ĺæľŁ": 7056,
      "Ġå®¶åıªä»ĸ": 7057,
      "Ġå®¶æľŁå½ĵå¥³": 7058,
      "Ġå®¶çĿĢèĩª": 7059,
      "Ġå®¶æŃ£åĴĮ": 7060,
      "Ġä¸İä¹ĭ": 7061,
      "Ġä¸İä½į": 7062,
      "Ġä¸İå¾Ĺ": 7063,
      "Ġä¸İæĦŁ": 7064,
      "Ġä¸İæł·": 7065,
      "Ġä¸İåĲį": 7066,
      "Ġä¸İæŃ£": 7067,
      "Ġä¸İå·²": 7068,
      "Ġä¸İç»ı": 7069,
      "Ġä¸İåŃ¦": 7070,
      "Ġä¸İè¯´": 7071,
      "Ġä¸İä¸į": 7072,
      "Ġä¸İä»¬": 7073,
      "Ġä¸İåĬ¨": 7074,
      "Ġä¸İè¢«": 7075,
      "Ġä¸İä¸ª": 7076,
      "Ġä¸İå·±": 7077,
      "Ġä¸İå¤§": 7078,
      "Ġä¸İåĲİ": 7079,
      "Ġä¸İåĩº": 7080,
      "Ġä¸İçĦ¶": 7081,
      "Ġä¸İåĦ¿": 7082,
      "Ġä¸İæĢ»": 7083,
      "Ġä¸İå¥½": 7084,
      "Ġä¸İåĪ°": 7085,
      "Ġä¸İéķ¿": 7086,
      "Ġä¸İäºĽ": 7087,
      "Ġä¸İæĸ¹": 7088,
      "Ġä¸İéģĵ": 7089,
      "Ġä¸İåı¯": 7090,
      "Ġä¸İéĩĮåĪĨ": 7091,
      "Ġä¸İè¿ĻåĦ¿": 7092,
      "Ġä¸İåĪ°æĹ¥": 7093,
      "Ġä¸İè¡ĮèĢĮ": 7094,
      "Ġä¸İç¾İèĢģ": 7095,
      "Ġä¸İæĪĲå¾Ī": 7096,
      "Ġä¸İè¿ĺçľĭ": 7097,
      "Ġä¸İä¸ĸäºĽ": 7098,
      "Ġä¸İæĹ¶å¸¸": 7099,
      "Ġä¸İäººèµ·": 7100,
      "Ġä¸İæ²¡æĦı": 7101,
      "Ġä¸İä½Ĩæĸ¹": 7102,
      "Ġä¸İäºĭéĤ£": 7103,
      "Ġä¸İçļĦæĿ¥": 7104,
      "Ġä¸İä»¥æĸ¯å¦Ĥ": 7105,
      "Ġä¸İèĢĮæĸ¹": 7106,
      "Ġä¸İå¥³æĹł": 7107,
      "ç»ıç¾İ": 7108,
      "ç»ıæĪĲ": 7109,
      "ç»ıæ²¡": 7110,
      "ç»ıä»İ": 7111,
      "ç»ıç»Ļ": 7112,
      "ç»ıå¼Ģ": 7113,
      "ç»ıæĹ¥": 7114,
      "ç»ıè¢«": 7115,
      "ç»ıå¤§": 7116,
      "ç»ıçĦ¶": 7117,
      "ç»ıå¥½": 7118,
      "ç»ıåĪĨ": 7119,
      "ç»ıéķ¿": 7120,
      "ç»ıäºĽ": 7121,
      "ç»ıæĸ¹": 7122,
      "ç»ıçľĭ": 7123,
      "ç»ıä½ľ": 7124,
      "ç»ıè¿Ľ": 7125,
      "ç»ıçŁ¥": 7126,
      "ç»ıè¯Ŀ": 7127,
      "ç»ıèĥ½": 7128,
      "ç»ıå®ĥ": 7129,
      "ç»ıåĲĮ": 7130,
      "ç»ıäºİ": 7131,
      "ç»ıçĪ±": 7132,
      "ç»ıæĥħèĥ½": 7133,
      "ç»ıå¤§æŃ¤": 7134,
      "ç»ıå¾Ĺèº«": 7135,
      "ç»ıä¸ĭæĹł": 7136,
      "ç»ıè¿ĻåĽ½": 7137,
      "ç»ıæīĭæĹ¶": 7138,
      "ç»ıå¸¸ç»ı": 7139,
      "åŃ¦æĪĲ": 7140,
      "åŃ¦éĥ½": 7141,
      "åŃ¦èĢĮ": 7142,
      "åŃ¦å¸¸": 7143,
      "åŃ¦åıĳ": 7144,
      "åŃ¦ä»¬": 7145,
      "åŃ¦æĹ¥": 7146,
      "åŃ¦éĿ¢": 7147,
      "åŃ¦ä¸ª": 7148,
      "åŃ¦å·±": 7149,
      "åŃ¦æľī": 7150,
      "åŃ¦æĦı": 7151,
      "åŃ¦åĦ¿": 7152,
      "åŃ¦å¥½": 7153,
      "åŃ¦åĪĨ": 7154,
      "åŃ¦éķ¿": 7155,
      "åŃ¦æĸ¹": 7156,
      "åŃ¦ä½¿": 7157,
      "åŃ¦åı¯": 7158,
      "åŃ¦å°ı": 7159,
      "åŃ¦ç¬¬": 7160,
      "åŃ¦è¿ĩä»Ģ": 7161,
      "åŃ¦çĦ¶çĪ±": 7162,
      "åŃ¦çİ°è¢«": 7163,
      "åŃ¦è¡ĮåĲĮ": 7164,
      "åŃ¦å¤©éĥ½åıĳ": 7165,
      "åŃ¦æĸ¯æ³ķ": 7166,
      "åŃ¦äºĭå°ı": 7167,
      "åŃ¦å¥¹ä½į": 7168,
      "è¯´å¤´": 7169,
      "è¯´åıª": 7170,
      "è¯´æĺ¯": 7171,
      "è¯´æŃ¤": 7172,
      "è¯´æĥ³": 7173,
      "è¯´åīį": 7174,
      "è¯´äºº": 7175,
      "è¯´åľ¨": 7176,
      "è¯´çľĭ": 7177,
      "è¯´çİ°": 7178,
      "è¯´çŁ¥": 7179,
      "è¯´åħ¶": 7180,
      "è¯´éĤ£ä¸ĭ": 7181,
      "è¯´ä½łå®¶": 7182,
      "è¯´æ¬¡åıĳ": 7183,
      "è¯´ä¹Īæł·": 7184,
      "è¯´äºĽåİ»": 7185,
      "è¯´ä¸Ģåīį": 7186,
      "è¯´çĪ±è¯´": 7187,
      "è¯´ç¾İæ¬¡çİ°": 7188,
      "è¯´ä½įèĩªè¡Į": 7189,
      "è¯´èº«éĿ¢": 7190,
      "è¯´èĢĮå°±": 7191,
      "è¯´è¿Ļåĩº": 7192,
      "è¯´å¥¹èĥ½": 7193,
      "è¯´å·²è¿ĻèĢģ": 7194,
      "å¦Ĥå¤´": 7195,
      "å¦Ĥæ³ķ": 7196,
      "å¦Ĥæĸ¯": 7197,
      "å¦Ĥåľ°": 7198,
      "å¦Ĥäº²": 7199,
      "å¦Ĥä»İ": 7200,
      "å¦ĤæĪĳ": 7201,
      "å¦Ĥå¤§": 7202,
      "å¦ĤæĦı": 7203,
      "å¦ĤåĪ°": 7204,
      "å¦Ĥéķ¿": 7205,
      "å¦ĤäºĽ": 7206,
      "å¦Ĥåľ¨": 7207,
      "å¦ĤçĶŁ": 7208,
      "å¦Ĥè¿Ľ": 7209,
      "å¦Ĥèĥ½": 7210,
      "å¦Ĥå®ĥ": 7211,
      "å¦Ĥæ´»": 7212,
      "å¦ĤåĽł": 7213,
      "å¦Ĥç¬¬": 7214,
      "å¦Ĥäºİ": 7215,
      "å¦ĤçĪ±åıª": 7216,
      "å¦Ĥä¸ĭçĪ±": 7217,
      "å¦Ĥç»Ļèµ·": 7218,
      "å¦Ĥä¸įä¸ĸ": 7219,
      "å¦ĤæľŁä¸ĭæľŁ": 7220,
      "å¦Ĥå°±è¡Įè¡Į": 7221,
      "å¦ĤéĩĮæ¬¡": 7222,
      "å¦ĤæĦŁçĪ±æĪĳ": 7223,
      "å¦Ĥä¸ºäº²": 7224,
      "ĠçŁ¥è¡Į": 7225,
      "ĠçŁ¥ç¾İ": 7226,
      "ĠçŁ¥æľŁ": 7227,
      "ĠçŁ¥åľ°": 7228,
      "ĠçŁ¥äº²": 7229,
      "ĠçŁ¥éĤ£": 7230,
      "ĠçŁ¥å·²": 7231,
      "ĠçŁ¥å¯¹": 7232,
      "ĠçŁ¥åıĳ": 7233,
      "ĠçŁ¥æĪĳ": 7234,
      "ĠçŁ¥èĢģ": 7235,
      "ĠçŁ¥æĹ¶": 7236,
      "ĠçŁ¥éķ¿": 7237,
      "ĠçŁ¥çİ°": 7238,
      "ĠçŁ¥å¹´": 7239,
      "ĠçŁ¥åħ¶": 7240,
      "ĠçŁ¥ç¬¬": 7241,
      "ĠçŁ¥äºİ": 7242,
      "ĠçŁ¥åıªæĹł": 7243,
      "ĠçŁ¥èĥ½èĢĮ": 7244,
      "ĠçŁ¥ä¹ĭéĿ¢": 7245,
      "ĠçŁ¥è¿ĺæĹ¥": 7246,
      "ĠçŁ¥éĩĮåĬ¨": 7247,
      "ĠçŁ¥æĥħåĽŀ": 7248,
      "ĠçŁ¥åĬ¨ä»¥": 7249,
      "ĠçŁ¥åīįæ´»": 7250,
      "ĠçŁ¥åŃĲä¼ļ": 7251,
      "ĠçŁ¥éģĵçļĦ": 7252,
      "ĠçŁ¥æĪĲå¤´åĽł": 7253,
      "ĠçŁ¥éĥ½æĪĳ": 7254,
      "ĠçŁ¥å®¶å¹´": 7255,
      "ĠçŁ¥æĺ¯èĥ½": 7256,
      "ĠçŁ¥æ¬¡åľ°": 7257,
      "ĠçŁ¥èĢĮä¸Ĭ": 7258,
      "ĠçŁ¥æĿ¥æľŁä¸Ģ": 7259,
      "ĠçŁ¥æŃ£çİ°å½ĵ": 7260,
      "ä¸¤è¡Į": 7261,
      "ä¸¤èº«": 7262,
      "ä¸¤è¿ĩ": 7263,
      "ä¸¤å¸¸": 7264,
      "ä¸¤ä»İ": 7265,
      "ä¸¤åıĳ": 7266,
      "ä¸¤ä»¬": 7267,
      "ä¸¤ä»Ģ": 7268,
      "ä¸¤ä¹Ī": 7269,
      "ä¸¤åĪ°": 7270,
      "ä¸¤å¤ļ": 7271,
      "ä¸¤åľ¨": 7272,
      "ä¸¤å¾Ī": 7273,
      "ä¸¤åı¯": 7274,
      "ä¸¤å¿ĥ": 7275,
      "ä¸¤å®ĥ": 7276,
      "ä¸¤ç§įèĢħ": 7277,
      "ä¸¤ä¹ĭåĲį": 7278,
      "ä¸¤ä½įä»İ": 7279,
      "ä¸¤ä½įå¹´": 7280,
      "ä¸¤ä¸ĭæĹł": 7281,
      "ä¸¤çļĦä½į": 7282,
      "ä¸¤ä¸İè¿Ļ": 7283,
      "ä¸¤ç¬¬ä¼ļ": 7284,
      "ä¸¤ä¹ĭåİ»": 7285,
      "ä¸¤æ²¡æīĢ": 7286,
      "ä¸¤ä¹ŁæĹ¥": 7287,
      "ä¸¤æ¬¡çĦ¶": 7288,
      "ä¸İåĴĮ": 7289,
      "ä¸İæ²¡": 7290,
      "ä¸İæ³ķ": 7291,
      "ä¸İæīĭ": 7292,
      "ä¸İèº«": 7293,
      "ä¸İéĩĮ": 7294,
      "ä¸İçļĦ": 7295,
      "ä¸İä»¥": 7296,
      "ä¸İä¸º": 7297,
      "ä¸İåŃ¦": 7298,
      "ä¸İä¸İ": 7299,
      "ä¸İä»Ģ": 7300,
      "ä¸İåĬ¨": 7301,
      "ä¸İå¤§": 7302,
      "ä¸İæĥ³": 7303,
      "ä¸İåĪĨ": 7304,
      "ä¸İéģĵ": 7305,
      "ä¸İä¸Ģ": 7306,
      "ä¸İå¹´": 7307,
      "ä¸İä¸Ĭ": 7308,
      "ä¸İæ´»": 7309,
      "ä¸İç¬¬": 7310,
      "ä¸İäºİ": 7311,
      "ä¸İä¸ºæĹ¥": 7312,
      "ä¸İæĸ¹å¥³": 7313,
      "ä¸İæĪĲä¼ļ": 7314,
      "ä¸İæĺ¯åĽł": 7315,
      "ä¸İä¼ļä¸ĸä¹Ī": 7316,
      "ä¸İäº²åīį": 7317,
      "ä¸İæł·ä¸ĸ": 7318,
      "ä¸İéĤ£ç»Ļ": 7319,
      "ä¸İäºĨæĥħ": 7320,
      "åıĳå¾Ĺ": 7321,
      "åıĳä¼ļ": 7322,
      "åıĳçļĦ": 7323,
      "åıĳéĤ£": 7324,
      "åıĳäºĨ": 7325,
      "åıĳåŃ¦": 7326,
      "åıĳè¯´": 7327,
      "åıĳåıĳ": 7328,
      "åıĳè¦ģ": 7329,
      "åıĳæĹ¥": 7330,
      "åıĳæĥħ": 7331,
      "åıĳå¥½": 7332,
      "åıĳå¤ļ": 7333,
      "åıĳä½¿": 7334,
      "åıĳåı¯": 7335,
      "åıĳè¯Ŀ": 7336,
      "åıĳé«ĺ": 7337,
      "åıĳå°ı": 7338,
      "åıĳå¦Ĥåı¯": 7339,
      "åıĳæ³ķéĥ½": 7340,
      "åıĳæľŁæľī": 7341,
      "åıĳäºĨç¾İ": 7342,
      "åıĳåıĳä½Ĩ": 7343,
      "åıĳåĩºåĽŀ": 7344,
      "åıĳä¸ĢéĤ£": 7345,
      "åıĳæĦŁåĽ½": 7346,
      "åıĳè¿ĩç¾İ": 7347,
      "åıĳè¿Ļä»İ": 7348,
      "åıĳä»İä¸Ĭ": 7349,
      "æĪĳæ³ķ": 7350,
      "æĪĳèµ·": 7351,
      "æĪĳä¼ļ": 7352,
      "æĪĳå¥¹": 7353,
      "æĪĳæĬĬ": 7354,
      "æĪĳåĬ¨": 7355,
      "æĪĳä¸ª": 7356,
      "æĪĳä½ł": 7357,
      "æĪĳå¤§": 7358,
      "æĪĳèĩª": 7359,
      "æĪĳæĦı": 7360,
      "æĪĳèĢħ": 7361,
      "æĪĳåĪ°": 7362,
      "æĪĳä¸Ģ": 7363,
      "æĪĳå¾Ī": 7364,
      "æĪĳå°ı": 7365,
      "æĪĳéĹ´": 7366,
      "æĪĳä»¬æĹ¥": 7367,
      "æĪĳè¦ģæŃ¤": 7368,
      "æĪĳåĪ°æĹ¥": 7369,
      "æĪĳåľ¨è¡Į": 7370,
      "æĪĳæ³ķèĢĮ": 7371,
      "æĪĳä¸ŃæĹł": 7372,
      "æĪĳä¸Ńä½ľ": 7373,
      "æĪĳä»İåĩº": 7374,
      "æĪĳä¹ĭäº²": 7375,
      "æĪĳæ¬¡ç»Ļ": 7376,
      "æĪĳä»¥æīĭ": 7377,
      "æĪĳåŃ¦å¤©éĥ½åıĳ": 7378,
      "ç»Ļè¡Į": 7379,
      "ç»Ļå¾Ĺ": 7380,
      "ç»Ļæĸ¯": 7381,
      "ç»Ļä¸¤": 7382,
      "ç»Ļåıĳ": 7383,
      "ç»Ļä¸ĸ": 7384,
      "ç»ĻæĦı": 7385,
      "ç»ĻæĢ»": 7386,
      "ç»ĻåĪ°": 7387,
      "ç»Ļè¯Ŀ": 7388,
      "ç»Ļåħ¶": 7389,
      "ç»Ļèĥ½": 7390,
      "ç»Ļæ´»": 7391,
      "ç»ĻéĩĮå¤§": 7392,
      "ç»Ļå¸¸ä¸º": 7393,
      "ç»Ļå¦ĤåĽ½": 7394,
      "ç»Ļä¹ĭçĿĢ": 7395,
      "ç»Ļå¤©æĥ³ä¸Ģ": 7396,
      "ç»Ļæīĭä½¿": 7397,
      "ç»Ļä¹Łæĺ¯ä¸¤": 7398,
      "ç»Ļå¸¸åĲİ": 7399,
      "ç»Ļä»İå¤©": 7400,
      "å¼Ģè¡Į": 7401,
      "å¼Ģå¾Ĺ": 7402,
      "å¼Ģæ²¡": 7403,
      "å¼Ģæĸ¯": 7404,
      "å¼Ģåľ°": 7405,
      "å¼Ģæĺ¯": 7406,
      "å¼Ģä¹Ł": 7407,
      "å¼Ģæ¬¡": 7408,
      "å¼Ģå¸¸": 7409,
      "å¼ĢçĿĢ": 7410,
      "å¼Ģç»Ļ": 7411,
      "å¼Ģä¸į": 7412,
      "å¼ĢæŃ¤": 7413,
      "å¼Ģä½ł": 7414,
      "å¼ĢåĲİ": 7415,
      "å¼Ģèĩª": 7416,
      "å¼ĢæīĢ": 7417,
      "å¼ĢæĦı": 7418,
      "å¼ĢæĢ»": 7419,
      "å¼Ģè¿Ľ": 7420,
      "å¼Ģåı¯": 7421,
      "å¼ĢåĲĮ": 7422,
      "å¼Ģä¸¤è¿Ľ": 7423,
      "å¼Ģè¡Įåıª": 7424,
      "å¼ĢæľŁå¿ĥ": 7425,
      "å¼ĢèĢĮä¸Ģ": 7426,
      "å¼ĢåŃ¦åĲį": 7427,
      "å¼ĢæľĢæľĢ": 7428,
      "å¼Ģå¾ĪéĤ£": 7429,
      "å¼Ģä½ľç»ı": 7430,
      "å¼Ģé«ĺå½ĵ": 7431,
      "å¼Ģä¸ĭæ²¡": 7432,
      "å¼ĢéĤ£ä¸ĢåĪ°": 7433,
      "å¼ĢåŃ¦è¿ĩä»Ģ": 7434,
      "å¼Ģå¦Ĥä¸įä¸ĸ": 7435,
      "æĬĬè¡Į": 7436,
      "æĬĬä¹ĭ": 7437,
      "æĬĬå¤©": 7438,
      "æĬĬå°±": 7439,
      "æĬĬèĢĮ": 7440,
      "æĬĬå¸¸": 7441,
      "æĬĬå¼Ģ": 7442,
      "æĬĬä¸į": 7443,
      "æĬĬä»¬": 7444,
      "æĬĬåıĪ": 7445,
      "æĬĬæĹ¶": 7446,
      "æĬĬæĥ³": 7447,
      "æĬĬåĪĨ": 7448,
      "æĬĬçľĭ": 7449,
      "æĬĬçİ°": 7450,
      "æĬĬçĶŁ": 7451,
      "æĬĬä»ĸ": 7452,
      "æĬĬåı¯": 7453,
      "æĬĬè¯Ŀ": 7454,
      "æĬĬä¸Ĭ": 7455,
      "æĬĬæ´»": 7456,
      "æĬĬç§į": 7457,
      "æĬĬçĪ±": 7458,
      "æĬĬç§įä¸ĸ": 7459,
      "æĬĬæĿ¥ä¹Ł": 7460,
      "æĬĬè¿ĺå¿ĥ": 7461,
      "æĬĬæĸ¯éģĵä»ĸ": 7462,
      "æĬĬä¸ĭäºº": 7463,
      "æĬĬä¹Łå¤©": 7464,
      "æĬĬäº²è¡Į": 7465,
      "æĬĬçĿĢå®¶å·±": 7466,
      "è¦ģå¤´": 7467,
      "è¦ģä½į": 7468,
      "è¦ģæĸ¯": 7469,
      "è¦ģå°±": 7470,
      "è¦ģä¸º": 7471,
      "è¦ģæł·": 7472,
      "è¦ģç»Ļ": 7473,
      "è¦ģè¢«": 7474,
      "è¦ģä½ł": 7475,
      "è¦ģä¸ĸ": 7476,
      "è¦ģå¤§": 7477,
      "è¦ģåĲİ": 7478,
      "è¦ģåĽ½": 7479,
      "è¦ģæĥ³": 7480,
      "è¦ģæľī": 7481,
      "è¦ģèĢħ": 7482,
      "è¦ģéķ¿": 7483,
      "è¦ģæľĢ": 7484,
      "è¦ģè¯Ŀ": 7485,
      "è¦ģä¸Ĭ": 7486,
      "è¦ģåħ¶": 7487,
      "è¦ģäºİ": 7488,
      "è¦ģä½łä¹Ł": 7489,
      "è¦ģç¾İæŃ¤": 7490,
      "è¦ģå®¶éĿ¢": 7491,
      "è¦ģä¼ļå°±": 7492,
      "è¦ģå¸¸éķ¿": 7493,
      "è¦ģä¹ĭè¯´": 7494,
      "è¦ģä¸Ńæĸ¹": 7495,
      "è¦ģæľŁåĲį": 7496,
      "è¦ģå¸¸èĢħ": 7497,
      "è¦ģäº²æŃ£": 7498,
      "è¦ģéĤ£è¦ģå¼Ģ": 7499,
      "è¦ģä»İå¦Ĥ": 7500,
      "è¦ģå¥³è¿Ľ": 7501,
      "è¦ģå½ĵä¼ļ": 7502,
      "è¦ģå¯¹ä»Ģç§į": 7503,
      "ä¸įå¤©": 7504,
      "ä¸įç»ı": 7505,
      "ä¸įæĪĳ": 7506,
      "ä¸įæŃ¤": 7507,
      "ä¸įè¢«": 7508,
      "ä¸įéĿ¢": 7509,
      "ä¸įæĹ¶": 7510,
      "ä¸įéķ¿": 7511,
      "ä¸įäºĽ": 7512,
      "ä¸įçľĭ": 7513,
      "ä¸įä¸Ģ": 7514,
      "ä¸įçİ°å¥½": 7515,
      "ä¸įä¹ĭå¥¹": 7516,
      "ä¸įä¸Ńå¹´": 7517,
      "ä¸įä¹Łä»¥": 7518,
      "ä¸įæ¬¡èĢģ": 7519,
      "ä¸įåĦ¿åİ»": 7520,
      "ä¸įå®¶åıĳçĶ¨": 7521,
      "ä¸įå°±æľŁçľĭ": 7522,
      "ä¸įå¥¹å°±çİ°": 7523,
      "ä¸įæł·å¾Ĺ": 7524,
      "ä¸įçĿĢä¸¤": 7525,
      "ä»¬ä½į": 7526,
      "ä»¬ä¸Ń": 7527,
      "ä»¬æľŁ": 7528,
      "ä»¬äºĭ": 7529,
      "ä»¬è¿ĩ": 7530,
      "ä»¬ä¸¤": 7531,
      "ä»¬æĪĳ": 7532,
      "ä»¬ç»Ļ": 7533,
      "ä»¬è¢«": 7534,
      "ä»¬ä½ł": 7535,
      "ä»¬ä¸ĸ": 7536,
      "ä»¬åĲİ": 7537,
      "ä»¬åĦ¿": 7538,
      "ä»¬åĪĨ": 7539,
      "ä»¬éķ¿": 7540,
      "ä»¬éģĵ": 7541,
      "ä»¬çİ°": 7542,
      "ä»¬ä½¿": 7543,
      "ä»¬å¿ĥ": 7544,
      "ä»¬çŁ¥": 7545,
      "ä»¬é«ĺ": 7546,
      "ä»¬çĶ¨": 7547,
      "ä»¬ç¬¬": 7548,
      "ä»¬äºİ": 7549,
      "ä»¬æĿ¥çĪ±": 7550,
      "ä»¬å½ĵå¥³": 7551,
      "ä»¬çĶŁåĦ¿": 7552,
      "ä»¬æĸ¯å¿ĥ": 7553,
      "ä»¬å¼Ģä¸ĸ": 7554,
      "ä»¬æŃ¤ä¸Ģ": 7555,
      "ä»¬åĪ°èĥ½": 7556,
      "ä»¬æľĢæĿ¥": 7557,
      "ä»¬å¤´åĴĮ": 7558,
      "ä»¬ç¾İæĹł": 7559,
      "ä»¬åĴĮè¯Ŀ": 7560,
      "ä»¬æ²¡è¿ĺåıĪ": 7561,
      "ä»¬èµ·ä¸Ń": 7562,
      "ä»¬éĩĮéĥ½": 7563,
      "ä»¬è¿ĻæĢ»": 7564,
      "ä»ĢæĪĲ": 7565,
      "ä»Ģæ³ķ": 7566,
      "ä»Ģä¸Ń": 7567,
      "ä»ĢæľŁ": 7568,
      "ä»Ģæĺ¯": 7569,
      "ä»Ģèº«": 7570,
      "ä»ĢéĤ£": 7571,
      "ä»Ģå¦Ĥ": 7572,
      "ä»ĢæĬĬ": 7573,
      "ä»Ģè¦ģ": 7574,
      "ä»ĢæŃ¤": 7575,
      "ä»Ģæĥħ": 7576,
      "ä»Ģä½ł": 7577,
      "ä»Ģåĩº": 7578,
      "ä»Ģæľī": 7579,
      "ä»Ģéģĵ": 7580,
      "ä»Ģå¾Ī": 7581,
      "ä»Ģä»ĸ": 7582,
      "ä»Ģå¹´": 7583,
      "ä»Ģå®ĥ": 7584,
      "ä»Ģç¬¬": 7585,
      "ä»Ģåİ»åĴĮ": 7586,
      "ä»Ģæ²¡åĩº": 7587,
      "ä»ĢåĽŀæŃ¤": 7588,
      "ä»Ģåıªä¸¤": 7589,
      "ä»Ģèº«åŃ¦": 7590,
      "ä»ĢçļĦè¿Ļ": 7591,
      "ä»Ģå¤§çĦ¶": 7592,
      "ä»Ģä¼ļåŃ¦": 7593,
      "ä»Ģè¿Ļæĺ¯": 7594,
      "ä»Ģå·²éģĵ": 7595,
      "æĹ¥è¡Į": 7596,
      "æĹ¥ä¸Ń": 7597,
      "æĹ¥èĢĮ": 7598,
      "æĹ¥æł·": 7599,
      "æĹ¥çĿĢ": 7600,
      "æĹ¥æŃ£": 7601,
      "æĹ¥ä¸İ": 7602,
      "æĹ¥æĬĬ": 7603,
      "æĹ¥è¦ģ": 7604,
      "æĹ¥åĩº": 7605,
      "æĹ¥åīį": 7606,
      "æĹ¥åħ¶": 7607,
      "æĹ¥é«ĺ": 7608,
      "æĹ¥æ´»": 7609,
      "æĹ¥åĽł": 7610,
      "æĹ¥éģĵåĪĨ": 7611,
      "æĹ¥è¿ĺä¹Ł": 7612,
      "æĹ¥æľŁæīĢ": 7613,
      "æĹ¥éĤ£éĩĮ": 7614,
      "æĹ¥ç»Ļä½¿": 7615,
      "æĹ¥å¤´å¤©": 7616,
      "æĹ¥æīĭçĶ¨": 7617,
      "æĹ¥åıĳè¯´": 7618,
      "æŃ¤å¤´": 7619,
      "æŃ¤å°±": 7620,
      "æŃ¤èµ·": 7621,
      "æŃ¤å¥³": 7622,
      "æŃ¤åŃ¦": 7623,
      "æŃ¤ä»Ģ": 7624,
      "æŃ¤éĿ¢": 7625,
      "æŃ¤åĽ½": 7626,
      "æŃ¤æĹł": 7627,
      "æŃ¤æľĢ": 7628,
      "æŃ¤åľ¨": 7629,
      "æŃ¤çŁ¥": 7630,
      "æŃ¤åĽł": 7631,
      "æŃ¤ä½ĨçĦ¶": 7632,
      "æŃ¤åľ°æĢ»": 7633,
      "æŃ¤æĹ¥èº«": 7634,
      "æŃ¤è¡ĮæĹ¶": 7635,
      "æŃ¤åĴĮèĢģ": 7636,
      "æŃ¤æ²¡æĦŁ": 7637,
      "æŃ¤éĥ½åĲİ": 7638,
      "æĥħå¤©": 7639,
      "æĥħåıª": 7640,
      "æĥħéĩĮ": 7641,
      "æĥħç»Ļ": 7642,
      "æĥħåĬ¨": 7643,
      "æĥħå¤§": 7644,
      "æĥħä¹Ī": 7645,
      "æĥħèĢģ": 7646,
      "æĥħçĦ¶": 7647,
      "æĥħæĦı": 7648,
      "æĥħæĢ»": 7649,
      "æĥħæĹł": 7650,
      "æĥħæľĢ": 7651,
      "æĥħæĸ¹": 7652,
      "æĥħä¸Ģ": 7653,
      "æĥħè¿Ľ": 7654,
      "æĥħä½¿": 7655,
      "æĥħå°ı": 7656,
      "æĥħåĲĮ": 7657,
      "æĥħäºİ": 7658,
      "æĥħæĺ¯æĺ¯": 7659,
      "æĥħä»ĸé«ĺ": 7660,
      "æĥħèµ·è¡Įä¹Ī": 7661,
      "æĥħçļĦæĹ¥": 7662,
      "æĥħä¸İä¸Ĭ": 7663,
      "æĥħè¦ģéķ¿": 7664,
      "åĬ¨ä½į": 7665,
      "åĬ¨è¿ĺ": 7666,
      "åĬ¨æĸ¯": 7667,
      "åĬ¨è¿Ļ": 7668,
      "åĬ¨ä¸¤": 7669,
      "åĬ¨è¦ģ": 7670,
      "åĬ¨ä»Ģ": 7671,
      "åĬ¨åıĪ": 7672,
      "åĬ¨åĲİ": 7673,
      "åĬ¨çĦ¶": 7674,
      "åĬ¨èĢħ": 7675,
      "åĬ¨æĢ»": 7676,
      "åĬ¨åĪ°": 7677,
      "åĬ¨åŃĲ": 7678,
      "åĬ¨å¹´": 7679,
      "åĬ¨åı¯": 7680,
      "åĬ¨åħ¶": 7681,
      "åĬ¨æ´»": 7682,
      "åĬ¨éĹ´": 7683,
      "åĬ¨å¥³æĦı": 7684,
      "åĬ¨æĸ¯æĹł": 7685,
      "åĬ¨åľ°ä½¿": 7686,
      "åĬ¨å°±å°ı": 7687,
      "åĬ¨äºĭçļĦ": 7688,
      "åĬ¨æľĢåıª": 7689,
      "åĬ¨å¿ĥä½ł": 7690,
      "åĬ¨æĪĲåīį": 7691,
      "åĬ¨æ³ķåŃ¦": 7692,
      "åĬ¨ä¼ļå®ĥ": 7693,
      "åĬ¨æ¬¡æĪĲä¸Ń": 7694,
      "åĬ¨äºĨæīĢ": 7695,
      "åĬ¨æŃ£æĥħ": 7696,
      "åĬ¨ä¸įå¥¹å°±çİ°": 7697,
      "è¢«äºĭ": 7698,
      "è¢«ä¼ļ": 7699,
      "è¢«èº«": 7700,
      "è¢«å¦Ĥ": 7701,
      "è¢«æĹ¥": 7702,
      "è¢«åıĪ": 7703,
      "è¢«æĹ¶": 7704,
      "è¢«æĹł": 7705,
      "è¢«éķ¿": 7706,
      "è¢«éģĵ": 7707,
      "è¢«çİ°": 7708,
      "è¢«çĶ¨": 7709,
      "è¢«åĽł": 7710,
      "è¢«äºİäºĨ": 7711,
      "è¢«ä½įå¥³": 7712,
      "è¢«æł·ä»¥ç§į": 7713,
      "è¢«æŃ£ä¸įçĦ¶": 7714,
      "è¢«ä»ĢåĽŀæŃ¤": 7715,
      "éĿ¢æ³ķ": 7716,
      "éĿ¢å°±": 7717,
      "éĿ¢éĤ£": 7718,
      "éĿ¢æŃ¤": 7719,
      "éĿ¢èĢģ": 7720,
      "éĿ¢åĲİ": 7721,
      "éĿ¢åľ¨": 7722,
      "éĿ¢å¹´": 7723,
      "éĿ¢è¯Ŀ": 7724,
      "éĿ¢æ´»": 7725,
      "éĿ¢çĶ¨": 7726,
      "éĿ¢ç¬¬": 7727,
      "éĿ¢åİ»åĴĮ": 7728,
      "éĿ¢è¦ģåıª": 7729,
      "éĿ¢ä¸Ńä½ľ": 7730,
      "éĿ¢åĴĮæ³ķ": 7731,
      "éĿ¢æ¬¡èº«åıĪ": 7732,
      "éĿ¢ç»ıä½ľ": 7733,
      "Ġæ²¡åĴĮ": 7734,
      "Ġæ²¡ä½į": 7735,
      "Ġæ²¡ä¸Ń": 7736,
      "Ġæ²¡ä¸º": 7737,
      "Ġæ²¡çĿĢ": 7738,
      "Ġæ²¡åĲį": 7739,
      "Ġæ²¡ä¸¤": 7740,
      "Ġæ²¡æĪĳ": 7741,
      "Ġæ²¡å·±": 7742,
      "Ġæ²¡ä¹Ī": 7743,
      "Ġæ²¡èĩª": 7744,
      "Ġæ²¡æĥ³": 7745,
      "Ġæ²¡æĦı": 7746,
      "Ġæ²¡æĹł": 7747,
      "Ġæ²¡éķ¿": 7748,
      "Ġæ²¡äºĽ": 7749,
      "Ġæ²¡æĸ¹": 7750,
      "Ġæ²¡çĶŁ": 7751,
      "Ġæ²¡å¿ĥ": 7752,
      "Ġæ²¡é«ĺ": 7753,
      "Ġæ²¡å®ĥ": 7754,
      "Ġæ²¡åĲĮ": 7755,
      "Ġæ²¡çĶ¨": 7756,
      "Ġæ²¡æĦŁæľŁ": 7757,
      "Ġæ²¡éĤ£æ¬¡": 7758,
      "Ġæ²¡ç¾İéĩĮ": 7759,
      "Ġæ²¡åıªéķ¿": 7760,
      "Ġæ²¡æĸ¯çĦ¶": 7761,
      "Ġæ²¡å½ĵä¹ĭ": 7762,
      "Ġæ²¡ä»¬è¿ĺ": 7763,
      "Ġæ²¡å¤§é«ĺ": 7764,
      "Ġæ²¡ä¸Ģåīį": 7765,
      "Ġæ²¡ä¹ĭçŁ¥": 7766,
      "Ġæ²¡å¤´æīĭ": 7767,
      "Ġæ²¡æĪĲä»¬": 7768,
      "Ġæ²¡è¿ĺä¸Ĭ": 7769,
      "Ġæ²¡ä¸ĭå¾Ī": 7770,
      "Ġæ²¡ä¹Łè¦ģ": 7771,
      "Ġæ²¡èĢĮä¸º": 7772,
      "Ġæ²¡ä»İè¿ĻçļĦ": 7773,
      "Ġæ²¡å¥³äºİ": 7774,
      "Ġæ²¡å½ĵè¡Į": 7775,
      "Ġæ²¡å¯¹æľĢ": 7776,
      "Ġæ²¡ä¸įçľĭ": 7777,
      "ä¸ªæ²¡": 7778,
      "ä¸ªè¿ĺ": 7779,
      "ä¸ªå¥³": 7780,
      "ä¸ªæĬĬ": 7781,
      "ä¸ªæĥħ": 7782,
      "ä¸ªèĢģ": 7783,
      "ä¸ªæĥ³": 7784,
      "ä¸ªå¥½": 7785,
      "ä¸ªéķ¿": 7786,
      "ä¸ªæľĢ": 7787,
      "ä¸ªä¸Ĭ": 7788,
      "ä¸ªåĲĮ": 7789,
      "ä¸ªç§į": 7790,
      "ä¸ªç¬¬": 7791,
      "ä¸ªäºĽä¸Ģ": 7792,
      "ä¸ªå¦ĤæŃ¤": 7793,
      "ä¸ªäºĨåĲĮ": 7794,
      "ä¸ªä¸İä¼ļä¸ĸä¹Ī": 7795,
      "ä¸ªå¼ĢåĲĮ": 7796,
      "ä¸ªåĬ¨åľ°ä½¿": 7797,
      "ä½łå¤´": 7798,
      "ä½łè¿ĺ": 7799,
      "ä½łæ³ķ": 7800,
      "ä½łä¸Ń": 7801,
      "ä½łåıª": 7802,
      "ä½łèº«": 7803,
      "ä½łçļĦ": 7804,
      "ä½łå¥¹": 7805,
      "ä½łåĲį": 7806,
      "ä½łå¦Ĥ": 7807,
      "ä½łå¼Ģ": 7808,
      "ä½łæĬĬ": 7809,
      "ä½łä»Ģ": 7810,
      "ä½łçĦ¶": 7811,
      "ä½łèĩª": 7812,
      "ä½łæĦı": 7813,
      "ä½łåĪ°": 7814,
      "ä½łåŃĲ": 7815,
      "ä½łå¾Ī": 7816,
      "ä½łåİ»": 7817,
      "ä½łå°ı": 7818,
      "ä½łæ´»": 7819,
      "ä½łåĽŀ": 7820,
      "ä½łç§į": 7821,
      "ä½łæīĭè¿Ľ": 7822,
      "ä½łäºĭæĢ»": 7823,
      "ä½łæ¬¡çİ°": 7824,
      "ä½łæĸ¯æĹ¥": 7825,
      "ä½łæŃ£ç§į": 7826,
      "ä½łå·²ä¸į": 7827,
      "ä½łæĹ¥æ´»": 7828,
      "Ġä»Ģä¹ĭ": 7829,
      "Ġä»Ģå°±": 7830,
      "Ġä»Ģæł·": 7831,
      "Ġä»ĢäºĨ": 7832,
      "Ġä»Ģè¯´": 7833,
      "Ġä»Ģä¸İ": 7834,
      "Ġä»Ģç»Ļ": 7835,
      "Ġä»Ģè¢«": 7836,
      "Ġä»Ģå·±": 7837,
      "Ġä»Ģå¤§": 7838,
      "Ġä»ĢåĲİ": 7839,
      "Ġä»ĢåĽ½": 7840,
      "Ġä»ĢæīĢ": 7841,
      "Ġä»Ģæĥ³": 7842,
      "Ġä»Ģäºº": 7843,
      "Ġä»ĢåĦ¿": 7844,
      "Ġä»Ģå¥½": 7845,
      "Ġä»ĢåĪ°": 7846,
      "Ġä»Ģçľĭ": 7847,
      "Ġä»Ģéģĵ": 7848,
      "Ġä»Ģä½¿": 7849,
      "Ġä»Ģåı¯": 7850,
      "Ġä»ĢçŁ¥": 7851,
      "Ġä»Ģä¸Ĭ": 7852,
      "Ġä»Ģç¬¬": 7853,
      "Ġä»Ģè¿ĺåĴĮ": 7854,
      "Ġä»ĢæĦŁæľŁ": 7855,
      "Ġä»ĢèĢģæīĢ": 7856,
      "Ġä»Ģæ³ķåĬ¨": 7857,
      "Ġä»ĢåĲįä¸Ģ": 7858,
      "Ġä»Ģè¯´é«ĺ": 7859,
      "Ġä»ĢæľĢæĸ¯": 7860,
      "Ġä»Ģç§įå·²": 7861,
      "Ġä»Ģåľ°ç§įè¦ģ": 7862,
      "Ġä»Ģä½įä¼ļ": 7863,
      "Ġä»Ģæīĭåıĳ": 7864,
      "Ġä»Ģåľ°ç¬¬": 7865,
      "Ġä»Ģæĺ¯ç§į": 7866,
      "Ġä»Ģä¸ĭä»¥": 7867,
      "Ġä»ĢéĩĮçļĦå®¶": 7868,
      "Ġä»ĢåŃ¦éĿ¢": 7869,
      "Ġä»ĢæĪĳèĩª": 7870,
      "Ġä»ĢåĬ¨çĦ¶": 7871,
      "å·±æ³ķ": 7872,
      "å·±æ¬¡": 7873,
      "å·±å¥¹": 7874,
      "å·±åĲį": 7875,
      "å·±å·²": 7876,
      "å·±ä¸İ": 7877,
      "å·±åĩº": 7878,
      "å·±æĦı": 7879,
      "å·±éķ¿": 7880,
      "å·±å¤ļ": 7881,
      "å·±åİ»": 7882,
      "å·±èĥ½": 7883,
      "å·±çĶ¨": 7884,
      "å·±è¦ģåıª": 7885,
      "å·±éĩĮä¸ĸ": 7886,
      "å·±åıĪæĹ¶": 7887,
      "å·±å¤´å·²": 7888,
      "å·±èµ·å¸¸ä¸İ": 7889,
      "å·±å¸¸ä½į": 7890,
      "å·±å¦ĤæĦŁçĪ±æĪĳ": 7891,
      "å·±éĿ¢æ³ķ": 7892,
      "ä¸ĸæľŁ": 7893,
      "ä¸ĸæĺ¯": 7894,
      "ä¸ĸä¸º": 7895,
      "ä¸ĸäº²": 7896,
      "ä¸ĸå·²": 7897,
      "ä¸ĸæĥħ": 7898,
      "ä¸ĸéĿ¢": 7899,
      "ä¸ĸä½ł": 7900,
      "ä¸ĸå·±": 7901,
      "ä¸ĸæīĢ": 7902,
      "ä¸ĸåĦ¿": 7903,
      "ä¸ĸå¥½": 7904,
      "ä¸ĸåĪ°": 7905,
      "ä¸ĸæĸ¹": 7906,
      "ä¸ĸçľĭ": 7907,
      "ä¸ĸä¸Ģ": 7908,
      "ä¸ĸå®ĥ": 7909,
      "ä¸ĸå°ı": 7910,
      "ä¸ĸç»ıåľ°": 7911,
      "ä¸ĸå¸¸è¡Į": 7912,
      "ä¸ĸå¸¸ç§į": 7913,
      "ä¸ĸä¸¤äºĨ": 7914,
      "ä¸ĸå¾Ĺè¯´åŃ¦": 7915,
      "ä¸ĸè¿ĺåĽł": 7916,
      "ä¸ĸåıªè¿Ļ": 7917,
      "ä¸ĸè¯´çľĭ": 7918,
      "ä¸ĸä»Ģæ³ķ": 7919,
      "ä¸ĸåĬ¨æĢ»": 7920,
      "Ġä¸įæ²¡": 7921,
      "Ġä¸įéĥ½": 7922,
      "Ġä¸įä¸Ń": 7923,
      "Ġä¸įå®¶": 7924,
      "Ġä¸įä¹Ł": 7925,
      "Ġä¸įè¿ĩ": 7926,
      "Ġä¸įä¸º": 7927,
      "Ġä¸įåŃ¦": 7928,
      "Ġä¸įä¸į": 7929,
      "Ġä¸įéĿ¢": 7930,
      "Ġä¸įä¸ĸ": 7931,
      "Ġä¸įåĽ½": 7932,
      "Ġä¸įèĩª": 7933,
      "Ġä¸įäºº": 7934,
      "Ġä¸įéķ¿": 7935,
      "Ġä¸įæľĢ": 7936,
      "Ġä¸įä½ľ": 7937,
      "Ġä¸įä¸Ĭ": 7938,
      "Ġä¸įåĲĮ": 7939,
      "Ġä¸įçĶ¨": 7940,
      "Ġä¸įéĹ´": 7941,
      "Ġä¸įäºİ": 7942,
      "Ġä¸įäº²åİ»": 7943,
      "Ġä¸įçĿĢä½į": 7944,
      "Ġä¸įåĲįæĹł": 7945,
      "Ġä¸įæĪĲæĸ¹": 7946,
      "Ġä¸įåĴĮç¾İ": 7947,
      "Ġä¸įè¦ģåŃ¦": 7948,
      "Ġä¸įåĴĮåľ¨": 7949,
      "Ġä¸įæ³ķä¹ĭç¾İ": 7950,
      "Ġä¸įå¸¸åŃĲ": 7951,
      "Ġä¸įæĿ¥åĽŀ": 7952,
      "Ġä¸įéĤ£ä¸ĸ": 7953,
      "Ġä¸įä»İåĽ½": 7954,
      "Ġä¸įè¯´æ¬¡åıĳ": 7955,
      "Ġä¸įæĪĳä¸Ńä½ľ": 7956,
      "Ġä¸įç»Ļè¡Į": 7957,
      "Ġä¸įæĬĬèĢĮ": 7958,
      "Ġä¸įä»¬ç¬¬": 7959,
      "å¤§ç¾İ": 7960,
      "å¤§åľ°": 7961,
      "å¤§ä¹Ł": 7962,
      "å¤§çļĦ": 7963,
      "å¤§è¯´": 7964,
      "å¤§å¤§": 7965,
      "å¤§ä¹Ī": 7966,
      "å¤§æĥ³": 7967,
      "å¤§æľĢ": 7968,
      "å¤§è¿Ľ": 7969,
      "å¤§è¯Ŀ": 7970,
      "å¤§å°ı": 7971,
      "å¤§åĲĮ": 7972,
      "å¤§åĽŀ": 7973,
      "å¤§éĹ´": 7974,
      "å¤§åŃ¦å·²": 7975,
      "å¤§æĸ¹åľ¨": 7976,
      "å¤§èº«ä¸ĭ": 7977,
      "å¤§æ¬¡äº²çŁ¥": 7978,
      "å¤§å¸¸æĪĲèĢĮ": 7979,
      "å¤§è¿Ļä¸ª": 7980,
      "å¤§å·²æŃ£": 7981,
      "å¤§å¼Ģæĸ¯": 7982,
      "å¤§éĿ¢å¹´": 7983,
      "åıĪä¹ĭ": 7984,
      "åıĪå¾Ĺ": 7985,
      "åıĪå¤©": 7986,
      "åıĪæŃ£": 7987,
      "åıĪå·±": 7988,
      "åıĪèĩª": 7989,
      "åıĪæĥ³": 7990,
      "åıĪåĦ¿": 7991,
      "åıĪçľĭ": 7992,
      "åıĪçĶŁ": 7993,
      "åıĪå¿ĥ": 7994,
      "åıĪçŁ¥": 7995,
      "åıĪé«ĺ": 7996,
      "åıĪå®ĥ": 7997,
      "åıĪæ´»": 7998,
      "åıĪæĹ¥ç¾İ": 7999,
      "åıĪäºĨæľŁ": 8000,
      "åıĪä½łå¥½": 8001,
      "åıĪæĪĲçİ°": 8002,
      "åıĪå®¶çĦ¶": 8003,
      "åıĪæīĭæĪĲ": 8004,
      "åıĪä¸ĭçľĭ": 8005,
      "åıĪæĿ¥æĦŁ": 8006,
      "åıĪçĿĢåĽŀ": 8007,
      "åıĪå½ĵçĦ¶": 8008,
      "åıĪè¯´ä¸Ģåīį": 8009,
      "åıĪä¸¤è¿ĩ": 8010,
      "ä¹ĪæĪĲ": 8011,
      "ä¹Īä½Ĩ": 8012,
      "ä¹Īè¿ĩ": 8013,
      "ä¹ĪéĤ£": 8014,
      "ä¹Īå¼Ģ": 8015,
      "ä¹ĪåĬ¨": 8016,
      "ä¹Īè¢«": 8017,
      "ä¹Īå¤§": 8018,
      "ä¹Īæĥ³": 8019,
      "ä¹ĪæĦı": 8020,
      "ä¹ĪèĢħ": 8021,
      "ä¹Īå¿ĥ": 8022,
      "ä¹Īä¸Ĭ": 8023,
      "ä¹Īé«ĺ": 8024,
      "ä¹ĪçĪ±": 8025,
      "ä¹Īå¦Ĥåı¯": 8026,
      "ä¹Īæĥ³åľ¨": 8027,
      "ä¹Īå°±ä½Ĩ": 8028,
      "ä¹Īå¦Ĥå¥³": 8029,
      "ä¹Īæ³ķä»¬": 8030,
      "ä¹Īå¤ļæ´»": 8031,
      "ä¹Īäº²ä¸ĭæĪĲå¤´": 8032,
      "ä¹Īå·²è¯Ŀä»¬": 8033,
      "ä¹Īè¯´æĺ¯": 8034,
      "èĢģæĪĲ": 8035,
      "èĢģä¼ļ": 8036,
      "èĢģè¿Ļ": 8037,
      "èĢģæĿ¥": 8038,
      "èĢģç»Ļ": 8039,
      "èĢģå¼Ģ": 8040,
      "èĢģä»Ģ": 8041,
      "èĢģä¸ª": 8042,
      "èĢģèĢģ": 8043,
      "èĢģå¤ļ": 8044,
      "èĢģåľ¨": 8045,
      "èĢģä¸Ĭ": 8046,
      "èĢģå°ı": 8047,
      "èĢģç»Ļå¤´": 8048,
      "èĢģåıĳåıª": 8049,
      "èĢģæŃ¤åīį": 8050,
      "èĢģæĥ³å½ĵ": 8051,
      "èĢģåıªèĩª": 8052,
      "èĢģä¸ĭæĪĳ": 8053,
      "æĹ¶è¡Į": 8054,
      "æĹ¶éĥ½": 8055,
      "æĹ¶è¿ĺ": 8056,
      "æĹ¶æīĭ": 8057,
      "æĹ¶äºĭ": 8058,
      "æĹ¶æ¬¡": 8059,
      "æĹ¶è¿Ļ": 8060,
      "æĹ¶ä¸º": 8061,
      "æĹ¶å¥³": 8062,
      "æĹ¶å¯¹": 8063,
      "æĹ¶åŃ¦": 8064,
      "æĹ¶åıĳ": 8065,
      "æĹ¶åıĪ": 8066,
      "æĹ¶æľī": 8067,
      "æĹ¶å¥½": 8068,
      "æĹ¶æľĢ": 8069,
      "æĹ¶ä¸Ģ": 8070,
      "æĹ¶ä½ľ": 8071,
      "æĹ¶ä¹Łæ²¡": 8072,
      "æĹ¶äº²ä¹Ī": 8073,
      "æĹ¶åĽŀæĦŁ": 8074,
      "æĹ¶éĩĮå°±å¤©ä¹Ł": 8075,
      "æĹ¶äºĨè¢«": 8076,
      "æĹ¶å¼Ģè¿Ľ": 8077,
      "åĲİçļĦ": 8078,
      "åĲİå½ĵ": 8079,
      "åĲİå¯¹": 8080,
      "åĲİè¯´": 8081,
      "åĲİåıĳ": 8082,
      "åĲİè¦ģ": 8083,
      "åĲİä¸į": 8084,
      "åĲİæĹ¥": 8085,
      "åĲİåĩº": 8086,
      "åĲİçĦ¶": 8087,
      "åĲİåİ»": 8088,
      "åĲİä¸Ĭ": 8089,
      "åĲİçĶ¨": 8090,
      "åĲİè¯´åĬ¨": 8091,
      "åĲİéģĵä»ĸ": 8092,
      "åĲİä¸Ńè¿ĩ": 8093,
      "åĲİæĥħå¤´": 8094,
      "åĲİå·±ç§į": 8095,
      "åĲİæĹ¶çļĦ": 8096,
      "åĲİè¡Įæĸ¹": 8097,
      "åĲİå¤©äºº": 8098,
      "åĲİæ³ķå¤´": 8099,
      "åĲİæīĭå¾Ĺä¸Ģ": 8100,
      "åĲİæĦŁæĹł": 8101,
      "åĲİå¤§éĿ¢å¹´": 8102,
      "åĲİåıĪè¯´ä¸Ģåīį": 8103,
      "åĲİåĲİåıĳ": 8104,
      "åĽ½ä¹ĭ": 8105,
      "åĽ½ä¼ļ": 8106,
      "åĽ½ä¹Ł": 8107,
      "åĽ½èĢĮ": 8108,
      "åĽ½æŃ£": 8109,
      "åĽ½å¯¹": 8110,
      "åĽ½åŃ¦": 8111,
      "åĽ½è¯´": 8112,
      "åĽ½ä¸į": 8113,
      "åĽ½æŃ¤": 8114,
      "åĽ½æĢ»": 8115,
      "åĽ½éķ¿": 8116,
      "åĽ½äºĽ": 8117,
      "åĽ½åŃĲ": 8118,
      "åĽ½ä¸Ģ": 8119,
      "åĽ½èĥ½": 8120,
      "åĽ½çĶ¨": 8121,
      "åĽ½éĥ½çļĦ": 8122,
      "åĽ½éĩĮåĪĨ": 8123,
      "åĽ½è¿ĻåĦ¿": 8124,
      "åĽ½æ³ķæĸ¹": 8125,
      "åĽ½ä¹Īçľĭ": 8126,
      "åĽ½èĩªå¾Ĺ": 8127,
      "åĽ½å¾Īæĥħ": 8128,
      "åĽ½æľŁåĽŀ": 8129,
      "åĽ½èº«ä¸Ń": 8130,
      "åĽ½è¿Ļè¡Į": 8131,
      "åĽ½æĿ¥å¥¹": 8132,
      "åĽ½è¦ģä¸ĸ": 8133,
      "åĽ½æĥħèĢģ": 8134,
      "åĽ½å·±æ¬¡": 8135,
      "ĠåĲĮç¾İ": 8136,
      "ĠåĲĮåĴĮ": 8137,
      "ĠåĲĮæ²¡": 8138,
      "ĠåĲĮæ³ķ": 8139,
      "ĠåĲĮä½Ĩ": 8140,
      "ĠåĲĮå°±": 8141,
      "ĠåĲĮä¸ĭ": 8142,
      "ĠåĲĮäº²": 8143,
      "ĠåĲĮä»İ": 8144,
      "ĠåĲĮå·²": 8145,
      "ĠåĲĮåŃ¦": 8146,
      "ĠåĲĮä¸¤": 8147,
      "ĠåĲĮåıĳ": 8148,
      "ĠåĲĮç»Ļ": 8149,
      "ĠåĲĮä¸į": 8150,
      "ĠåĲĮä»¬": 8151,
      "ĠåĲĮè¢«": 8152,
      "ĠåĲĮåĽ½": 8153,
      "ĠåĲĮèĩª": 8154,
      "ĠåĲĮæīĢ": 8155,
      "ĠåĲĮæĥ³": 8156,
      "ĠåĲĮäºº": 8157,
      "ĠåĲĮæĢ»": 8158,
      "ĠåĲĮå¥½": 8159,
      "ĠåĲĮä¸Ģ": 8160,
      "ĠåĲĮå¹´": 8161,
      "ĠåĲĮå¿ĥ": 8162,
      "ĠåĲĮèĥ½": 8163,
      "ĠåĲĮå®ĥ": 8164,
      "ĠåĲĮç¬¬": 8165,
      "ĠåĲĮäºİ": 8166,
      "ĠåĲĮçĪ±": 8167,
      "ĠåĲĮå¸¸ä¸İ": 8168,
      "ĠåĲĮåıĳéĿ¢": 8169,
      "ĠåĲĮæĸ¯åŃĲ": 8170,
      "ĠåĲĮèĢĮæĸ¯": 8171,
      "ĠåĲĮèĢĮåľ°": 8172,
      "ĠåĲĮå¤§é«ĺ": 8173,
      "ĠåĲĮè¯ĿåĪĨ": 8174,
      "ĠåĲĮå¾ĹæĪĲè¯Ŀ": 8175,
      "ĠåĲĮéĥ½å°±": 8176,
      "ĠåĲĮæĦŁä¸¤åĬ¨": 8177,
      "ĠåĲĮçļĦæŃ£": 8178,
      "ĠåĲĮä¸ªæľĢ": 8179,
      "åĩºåıª": 8180,
      "åĩºä¸ĭ": 8181,
      "åĩºä¼ļ": 8182,
      "åĩºä¸İ": 8183,
      "åĩºåıĪ": 8184,
      "åĩºäºº": 8185,
      "åĩºæĹł": 8186,
      "åĩºåĪĨ": 8187,
      "åĩºéķ¿": 8188,
      "åĩºçľĭ": 8189,
      "åĩºä»ĸ": 8190,
      "åĩºå¾Ĺä¸ĸ": 8191,
      "åĩºæ¬¡åıĳ": 8192,
      "åĩºäºĨåľ¨": 8193,
      "åĩºåĬ¨ä»¥": 8194,
      "åĩºæľĢå®ĥ": 8195,
      "åĩºå¤´ä¸Ĭ": 8196,
      "åĩºå¥¹èĢĮ": 8197,
      "åĩºåĲįéĹ´": 8198,
      "åĩºå¥³åĦ¿": 8199,
      "åĩºæĹ¥æĬĬ": 8200,
      "åĩºæĥħå¤©": 8201,
      "åĩºä¸ĸå¾Ĺè¯´åŃ¦": 8202,
      "åĩºä¹Īå°±ä½Ĩ": 8203,
      "çĦ¶å¤´": 8204,
      "çĦ¶ä½į": 8205,
      "çĦ¶å°±": 8206,
      "çĦ¶åĲį": 8207,
      "çĦ¶åŃ¦": 8208,
      "çĦ¶éĿ¢": 8209,
      "çĦ¶æīĢ": 8210,
      "çĦ¶å¤ļ": 8211,
      "çĦ¶éģĵ": 8212,
      "çĦ¶å¾Ī": 8213,
      "çĦ¶çİ°": 8214,
      "çĦ¶ä½ľ": 8215,
      "çĦ¶å¿ĥ": 8216,
      "çĦ¶åĲĮ": 8217,
      "çĦ¶äºİ": 8218,
      "çĦ¶èµ·è¿ĩ": 8219,
      "çĦ¶è¿ĺåİ»": 8220,
      "çĦ¶çļĦä¸ĭ": 8221,
      "çĦ¶ä¸¤ä½įä»İ": 8222,
      "çĦ¶ä¹ĪæĪĲ": 8223,
      "èĩªä»Ģ": 8224,
      "èĩªéĿ¢": 8225,
      "èĩªä¸ª": 8226,
      "èĩªæľĢ": 8227,
      "èĩªæĸ¹": 8228,
      "èĩªå¾Ī": 8229,
      "èĩªçĶŁ": 8230,
      "èĩªå¹´": 8231,
      "èĩªå¿ĥ": 8232,
      "èĩªæ´»": 8233,
      "èĩªéĹ´": 8234,
      "èĩªè¡Įèµ·": 8235,
      "èĩªé«ĺè¿Ľ": 8236,
      "èĩªæľŁåıĳ": 8237,
      "èĩªèº«ä¸İ": 8238,
      "èĩªä¸İäºĨæĥħ": 8239,
      "èĩªæĪĳä»¬æĹ¥": 8240,
      "èĩªå¼Ģèĩª": 8241,
      "èĩªå¤§éĹ´": 8242,
      "èĩªåıĪå½ĵçĦ¶": 8243,
      "ĠæĹłä¹ĭ": 8244,
      "ĠæĹłæĪĲ": 8245,
      "ĠæĹłä½į": 8246,
      "ĠæĹłéĥ½": 8247,
      "ĠæĹłèµ·": 8248,
      "ĠæĹłéĩĮ": 8249,
      "ĠæĹłå¥¹": 8250,
      "ĠæĹłçĿĢ": 8251,
      "ĠæĹłå·²": 8252,
      "ĠæĹłå¦Ĥ": 8253,
      "ĠæĹłåıĳ": 8254,
      "ĠæĹłæŃ¤": 8255,
      "ĠæĹłéĿ¢": 8256,
      "ĠæĹłèĢģ": 8257,
      "ĠæĹłåĽ½": 8258,
      "ĠæĹłæĥ³": 8259,
      "ĠæĹłåĪ°": 8260,
      "ĠæĹłéķ¿": 8261,
      "ĠæĹłäºĽ": 8262,
      "ĠæĹłåľ¨": 8263,
      "ĠæĹłä¸Ģ": 8264,
      "ĠæĹłçŁ¥": 8265,
      "ĠæĹłæ´»": 8266,
      "ĠæĹłåı¯æĦı": 8267,
      "ĠæĹłè¿ĩåĦ¿": 8268,
      "ĠæĹłå¼Ģä¸ĸ": 8269,
      "ĠæĹłè¢«èĩª": 8270,
      "ĠæĹłåĽ½ä¸ĭ": 8271,
      "ĠæĹłåĪĨåĲĮ": 8272,
      "ĠæĹłè¡Įèº«": 8273,
      "ĠæĹłå¤´åĪ°": 8274,
      "ĠæĹłç¾İå¯¹": 8275,
      "ĠæĹłåĴĮèº«æĹ¶": 8276,
      "ĠæĹłæ²¡çĶ¨": 8277,
      "ĠæĹłå¤©å¤´å½ĵé«ĺ": 8278,
      "ĠæĹłæ³ķè¿ĺ": 8279,
      "ĠæĹłåıªæĦŁ": 8280,
      "ĠæĹłä½Ĩå¾ĹäºĽ": 8281,
      "ĠæĹłä¹ŁåĬ¨": 8282,
      "ĠæĹłæł·è¿ĩæĥħ": 8283,
      "ĠæĹłæĪĳæĦı": 8284,
      "ĠæĹłç»Ļå¸¸åĲİ": 8285,
      "ĠæĹłæĬĬä¹Łå¤©": 8286,
      "ĠæĹłä¹ĪæĦı": 8287,
      "ĠæĹłæĹ¶å¥½": 8288,
      "Ġæľīä¹ĭ": 8289,
      "ĠæľīåĴĮ": 8290,
      "Ġæľīä¸Ń": 8291,
      "Ġæľīä½Ĩ": 8292,
      "Ġæľīåľ°": 8293,
      "Ġæľīä¸ĭ": 8294,
      "Ġæľīå¥¹": 8295,
      "ĠæľīéĤ£": 8296,
      "Ġæľīä»İ": 8297,
      "Ġæľīç»ı": 8298,
      "Ġæľīè¯´": 8299,
      "ĠæľīæĬĬ": 8300,
      "Ġæľīä¸į": 8301,
      "Ġæľīè¢«": 8302,
      "ĠæľīéĿ¢": 8303,
      "Ġæľīå·±": 8304,
      "Ġæľīä¸ĸ": 8305,
      "Ġæľīä¹Ī": 8306,
      "ĠæľīæĹ¶": 8307,
      "ĠæľīæĦı": 8308,
      "ĠæľīåĦ¿": 8309,
      "ĠæľīæĢ»": 8310,
      "Ġæľīéķ¿": 8311,
      "ĠæľīçĶŁ": 8312,
      "Ġæľīä»ĸ": 8313,
      "Ġæľīå¹´": 8314,
      "Ġæľīä½¿": 8315,
      "Ġæľīæ´»": 8316,
      "ĠæľīåĽł": 8317,
      "Ġæľīå°±å¤§": 8318,
      "Ġæľīå¥¹ä¸ĸ": 8319,
      "Ġæľīæł·æľŁ": 8320,
      "Ġæľīè¢«æľī": 8321,
      "Ġæľīä¸Ģéģĵ": 8322,
      "Ġæľīå¾Ĺè¦ģ": 8323,
      "Ġæľīå®¶åŃĲå¦Ĥ": 8324,
      "Ġæľīæĺ¯æĿ¥": 8325,
      "Ġæľīæ¬¡æĥ³": 8326,
      "Ġæľīè¿ĩåŃĲ": 8327,
      "ĠæľīèĢĮèĢħ": 8328,
      "Ġæľīäº²èĢħ": 8329,
      "Ġæľīå¥³æŃ¤": 8330,
      "ĠæľīåŃ¦å¥½": 8331,
      "æīĢæ²¡": 8332,
      "æīĢèĢĮ": 8333,
      "æīĢå¸¸": 8334,
      "æīĢåĲį": 8335,
      "æīĢæŃ£": 8336,
      "æīĢç»ı": 8337,
      "æīĢä¸İ": 8338,
      "æīĢæĹł": 8339,
      "æīĢåĪ°": 8340,
      "æīĢçľĭ": 8341,
      "æīĢçŁ¥": 8342,
      "æīĢè¯Ŀ": 8343,
      "æīĢä¸Ĭ": 8344,
      "æīĢæ´»": 8345,
      "æīĢåĽŀ": 8346,
      "æīĢå¿ĥèµ·": 8347,
      "æīĢçĪ±æĪĳ": 8348,
      "æīĢå¤´åĽł": 8349,
      "æīĢæľŁèµ·": 8350,
      "æīĢçļĦäº²": 8351,
      "æīĢäººæŃ¤": 8352,
      "æīĢæľĢæľŁ": 8353,
      "æīĢå¤´åıª": 8354,
      "æīĢå¤©æĸ¹": 8355,
      "æīĢäºĨæĹł": 8356,
      "æīĢæĹ¥æīĭçĶ¨": 8357,
      "æĥ³æ²¡": 8358,
      "æĥ³æīĭ": 8359,
      "æĥ³å°±": 8360,
      "æĥ³èµ·": 8361,
      "æĥ³è¿Ļ": 8362,
      "æĥ³æĿ¥": 8363,
      "æĥ³éĤ£": 8364,
      "æĥ³äºĨ": 8365,
      "æĥ³å·²": 8366,
      "æĥ³æĬĬ": 8367,
      "æĥ³å·±": 8368,
      "æĥ³æīĢ": 8369,
      "æĥ³åīį": 8370,
      "æĥ³å¥½": 8371,
      "æĥ³éģĵ": 8372,
      "æĥ³å¾Ī": 8373,
      "æĥ³è¯Ŀ": 8374,
      "æĥ³ä¸Ĭ": 8375,
      "æĥ³æīĭä¼ļ": 8376,
      "æĥ³åĴĮæĥħ": 8377,
      "æĥ³æ²¡æŃ£": 8378,
      "æĥ³èº«äºĭ": 8379,
      "æĥ³éĩĮä¸º": 8380,
      "æĥ³ä¸ªåīį": 8381,
      "æĥ³åİ»äºĭ": 8382,
      "æĥ³åĽŀæľŁ": 8383,
      "æĥ³è¡Įæīĭå¥¹": 8384,
      "æĥ³éĥ½å¥½": 8385,
      "æĥ³éĩĮåıªåľ¨éĿ¢": 8386,
      "æĥ³å¥³åĴĮå¤´": 8387,
      "æĥ³æŃ£ä¹ĭ": 8388,
      "æĥ³ä¸İæ³ķ": 8389,
      "æĥ³æĥħä¸İä¸Ĭ": 8390,
      "æĥ³ä½łæ´»": 8391,
      "æĥ³åıĪå¿ĥ": 8392,
      "æľīå®¶": 8393,
      "æľīä½Ĩ": 8394,
      "æľīæĺ¯": 8395,
      "æľīä¼ļ": 8396,
      "æľīä¹Ł": 8397,
      "æľīä¸º": 8398,
      "æľīä¸ª": 8399,
      "æľīåĽ½": 8400,
      "æľīæľī": 8401,
      "æľīåĪ°": 8402,
      "æľīä½ľ": 8403,
      "æľīèĥ½": 8404,
      "æľīé«ĺ": 8405,
      "æľīèº«ä»¥": 8406,
      "æľīçļĦæĦıèĢĮ": 8407,
      "æľīåŃ¦ä¸ª": 8408,
      "æľīä¸¤è¡Į": 8409,
      "æľīæĪĳæĬĬ": 8410,
      "æľīæĥ³å¾Ī": 8411,
      "ĠèĢħè¡Į": 8412,
      "ĠèĢħç¾İ": 8413,
      "ĠèĢħä¸Ń": 8414,
      "ĠèĢħå°±": 8415,
      "ĠèĢħä¸ĭ": 8416,
      "ĠèĢħä¹Ł": 8417,
      "ĠèĢħè¿ĩ": 8418,
      "ĠèĢħå¥¹": 8419,
      "ĠèĢħå¯¹": 8420,
      "ĠèĢħä¸¤": 8421,
      "ĠèĢħæĪĳ": 8422,
      "ĠèĢħä½ł": 8423,
      "ĠèĢħä¸ĸ": 8424,
      "ĠèĢħèĢģ": 8425,
      "ĠèĢħåĽ½": 8426,
      "ĠèĢħæĢ»": 8427,
      "ĠèĢħå¥½": 8428,
      "ĠèĢħæĸ¹": 8429,
      "ĠèĢħå¾Ī": 8430,
      "ĠèĢħä»ĸ": 8431,
      "ĠèĢħå°ı": 8432,
      "ĠèĢħç§į": 8433,
      "ĠèĢħçĪ±": 8434,
      "ĠèĢħè¿ĻåĦ¿": 8435,
      "ĠèĢħéĤ£æ¬¡": 8436,
      "ĠèĢħå·²ä»¬": 8437,
      "ĠèĢħå¯¹èĢģ": 8438,
      "ĠèĢħéģĵåĪĨ": 8439,
      "ĠèĢħæľŁè¿ĩ": 8440,
      "ĠèĢħèµ·èĢģ": 8441,
      "ĠèĢħæĿ¥çĦ¶": 8442,
      "ĠèĢħå¥¹å¤©": 8443,
      "ĠèĢħæľĢå·²": 8444,
      "ĠèĢħçĶŁèĥ½": 8445,
      "ĠèĢħæ³ķä½Ĩ": 8446,
      "ĠèĢħä»¥ä¹ŁåĽł": 8447,
      "ĠèĢħè¿Ļäºº": 8448,
      "ĠèĢħæĿ¥éĥ½ä¸¤": 8449,
      "ĠèĢħçĿĢæĺ¯ä¸İ": 8450,
      "ĠèĢħå·²è¯Ŀ": 8451,
      "ĠèĢħå½ĵä»¥": 8452,
      "ĠèĢħå¦Ĥæĸ¯": 8453,
      "ĠèĢħæŃ¤åĽ½": 8454,
      "ĠèĢħåĲİæ³ķå¤´": 8455,
      "ĠèĢħæĥ³è¡Įæīĭå¥¹": 8456,
      "æĦıä½į": 8457,
      "æĦıæĸ¯": 8458,
      "æĦıæĿ¥": 8459,
      "æĦıåĲį": 8460,
      "æĦıå¥½": 8461,
      "æĦıéķ¿": 8462,
      "æĦıå¤ļ": 8463,
      "æĦıæľĢ": 8464,
      "æĦıæĸ¹": 8465,
      "æĦıè¿Ľ": 8466,
      "æĦıå¿ĥ": 8467,
      "æĦıä¸Ĭ": 8468,
      "æĦıä¹Īä¸ª": 8469,
      "æĦıä½Ĩä»¬": 8470,
      "æĦıä¹Łè¿ĺ": 8471,
      "æĦıæĹ¥çľĭ": 8472,
      "æĦıä¸ºæĢ»": 8473,
      "æĦıçĿĢç¬¬å¹´": 8474,
      "æĦıäºĨæĦıçļĦ": 8475,
      "æĦıä¸İäºİ": 8476,
      "åīįè¡Į": 8477,
      "åīįè¯´": 8478,
      "åīįæĬĬ": 8479,
      "åīįéĿ¢": 8480,
      "åīįå·±": 8481,
      "åīįåĽ½": 8482,
      "åīįéķ¿": 8483,
      "åīįè¿Ľ": 8484,
      "åīįåİ»": 8485,
      "åīįæĦŁäºº": 8486,
      "åīįæĸ¹ä½ł": 8487,
      "åīįç¾İçĪ±": 8488,
      "åīįéĥ½æĹł": 8489,
      "åīįåĲįæĸ¹": 8490,
      "åīįç¾İåľ°è¿Ļ": 8491,
      "åīįä¸Ńæĺ¯": 8492,
      "åīįäºĨåľ°æĥ³": 8493,
      "ĠçļĦç¾İ": 8494,
      "ĠçļĦä½į": 8495,
      "ĠçļĦæ²¡": 8496,
      "ĠçļĦä¸ĭ": 8497,
      "ĠçļĦèº«": 8498,
      "ĠçļĦæĦŁ": 8499,
      "ĠçļĦäº²": 8500,
      "ĠçļĦæŃ¤": 8501,
      "ĠçļĦè¢«": 8502,
      "ĠçļĦéĿ¢": 8503,
      "ĠçļĦä½ł": 8504,
      "ĠçļĦå·±": 8505,
      "ĠçļĦæīĢ": 8506,
      "ĠçļĦåĪĨ": 8507,
      "ĠçļĦæĸ¹": 8508,
      "ĠçļĦä¸Ģ": 8509,
      "ĠçļĦä½¿": 8510,
      "ĠçļĦå¿ĥ": 8511,
      "ĠçļĦè¯Ŀ": 8512,
      "ĠçļĦé«ĺ": 8513,
      "ĠçļĦå®ĥ": 8514,
      "ĠçļĦå®¶å¥¹": 8515,
      "ĠçļĦåĲįè¿Ľ": 8516,
      "ĠçļĦæĬĬç¾İ": 8517,
      "ĠçļĦå¾ĪæĹł": 8518,
      "ĠçļĦéĥ½ä½ľ": 8519,
      "ĠçļĦå¤©åĩºäºİ": 8520,
      "ĠçļĦæ³ķç»ı": 8521,
      "ĠçļĦä¸Ńä½įçŁ¥": 8522,
      "ĠçļĦæīĭå®¶": 8523,
      "ĠçļĦå¸¸è¢«": 8524,
      "ĠçļĦæł·åĬ¨": 8525,
      "ĠçļĦæĬĬä¸į": 8526,
      "ĠçļĦåīįéĿ¢": 8527,
      "Ġéĥ½éĥ½": 8528,
      "Ġéĥ½å¤©": 8529,
      "Ġéĥ½çĿĢ": 8530,
      "Ġéĥ½éĤ£": 8531,
      "Ġéĥ½ç»ı": 8532,
      "Ġéĥ½åıĳ": 8533,
      "Ġéĥ½æĪĳ": 8534,
      "Ġéĥ½ä¹Ī": 8535,
      "Ġéĥ½æĹ¶": 8536,
      "Ġéĥ½çĦ¶": 8537,
      "Ġéĥ½åīį": 8538,
      "Ġéĥ½äºº": 8539,
      "Ġéĥ½åĦ¿": 8540,
      "Ġéĥ½æĢ»": 8541,
      "Ġéĥ½å¥½": 8542,
      "Ġéĥ½åĪ°": 8543,
      "Ġéĥ½äºĽ": 8544,
      "Ġéĥ½æĸ¹": 8545,
      "Ġéĥ½çĶŁ": 8546,
      "Ġéĥ½è¯Ŀ": 8547,
      "Ġéĥ½ä¸Ĭ": 8548,
      "Ġéĥ½è¦ģæŃ¤": 8549,
      "Ġéĥ½èĩªç¬¬": 8550,
      "Ġéĥ½å°±ç¬¬": 8551,
      "Ġéĥ½èº«å½ĵ": 8552,
      "Ġéĥ½æł·ä¹Ī": 8553,
      "Ġéĥ½éĤ£åĽŀ": 8554,
      "Ġéĥ½è¯´èĥ½": 8555,
      "Ġéĥ½ä¸¤åĬ¨": 8556,
      "Ġéĥ½ç»Ļå¿ĥ": 8557,
      "Ġéĥ½èĩªåŃĲ": 8558,
      "Ġéĥ½æľīä¸ĭ": 8559,
      "Ġéĥ½çľĭåħ¶": 8560,
      "Ġéĥ½å¤´çļĦ": 8561,
      "Ġéĥ½ä½įå¿ĥ": 8562,
      "Ġéĥ½åıªä»¬ä¹Ī": 8563,
      "Ġéĥ½æĸ¯æĺ¯": 8564,
      "Ġéĥ½äºĭä¹Ł": 8565,
      "Ġéĥ½ä¼ļå¤ļ": 8566,
      "Ġéĥ½çļĦåľ¨èĢĮ": 8567,
      "Ġéĥ½ä¸İäº²åīį": 8568,
      "Ġéĥ½ä½łåİ»": 8569,
      "Ġéĥ½å¤§åŃ¦å·²": 8570,
      "Ġéĥ½åĽ½èĩªå¾Ĺ": 8571,
      "äººæ²¡": 8572,
      "äººä½Ĩ": 8573,
      "äººæ¬¡": 8574,
      "äººå¦Ĥ": 8575,
      "äººæĹ¥": 8576,
      "äººä¹Ī": 8577,
      "äººæľī": 8578,
      "äººæĸ¹": 8579,
      "äººå¾Ī": 8580,
      "äººè¿Ľ": 8581,
      "äººä¸Ĭ": 8582,
      "äººåħ¶": 8583,
      "äººåĲĮ": 8584,
      "äººåĽŀ": 8585,
      "äººç¬¬": 8586,
      "äººåľ°çĶŁ": 8587,
      "äººèĢĮå°ı": 8588,
      "äººæł·ä½¿": 8589,
      "äººä»¬æĥħ": 8590,
      "äººåıªçİ°": 8591,
      "äººä¸ĭæĬĬ": 8592,
      "äººä¸¤ä¸ĭæĹł": 8593,
      "äººä¸ĸæľŁ": 8594,
      "äººçĦ¶ä½į": 8595,
      "äººäººæĹ¥": 8596,
      "Ġä»ĸåĴĮ": 8597,
      "Ġä»ĸå¾Ĺ": 8598,
      "Ġä»ĸéĥ½": 8599,
      "Ġä»ĸä¸Ń": 8600,
      "Ġä»ĸäºĭ": 8601,
      "Ġä»ĸä¼ļ": 8602,
      "Ġä»ĸéĩĮ": 8603,
      "Ġä»ĸè¿Ļ": 8604,
      "Ġä»ĸè¯´": 8605,
      "Ġä»ĸæĪĳ": 8606,
      "Ġä»ĸç»Ļ": 8607,
      "Ġä»ĸå¼Ģ": 8608,
      "Ġä»ĸè¢«": 8609,
      "Ġä»ĸå¤§": 8610,
      "Ġä»ĸèĩª": 8611,
      "Ġä»ĸäºº": 8612,
      "Ġä»ĸèĢħ": 8613,
      "Ġä»ĸåĦ¿": 8614,
      "Ġä»ĸå¥½": 8615,
      "Ġä»ĸæĹł": 8616,
      "Ġä»ĸæĸ¹": 8617,
      "Ġä»ĸåŃĲ": 8618,
      "Ġä»ĸå¾Ī": 8619,
      "Ġä»ĸä½¿": 8620,
      "Ġä»ĸåı¯": 8621,
      "Ġä»ĸåĽł": 8622,
      "Ġä»ĸç¬¬": 8623,
      "Ġä»ĸä»¬æĹ¥": 8624,
      "Ġä»ĸçĿĢä½į": 8625,
      "Ġä»ĸéĿ¢åĽŀ": 8626,
      "Ġä»ĸæ²¡æĬĬ": 8627,
      "Ġä»ĸä¸ĭäº²": 8628,
      "Ġä»ĸä»¬æĥħ": 8629,
      "Ġä»ĸæĹ¶æ³ķ": 8630,
      "Ġä»ĸæĹ¶ä¸į": 8631,
      "Ġä»ĸå¤ļå¤©": 8632,
      "Ġä»ĸé«ĺè¿Ľ": 8633,
      "Ġä»ĸå®¶åĲİèĢħ": 8634,
      "Ġä»ĸæ¬¡æĸ¯": 8635,
      "Ġä»ĸä»¥å®¶æ²¡": 8636,
      "Ġä»ĸæĿ¥åĬ¨": 8637,
      "Ġä»ĸä»¬å¿ĥ": 8638,
      "Ġä»ĸåĬ¨ä»Ģ": 8639,
      "èĢħæĿ¥": 8640,
      "èĢħå¥¹": 8641,
      "èĢħå·²": 8642,
      "èĢħä»Ģ": 8643,
      "èĢħåĦ¿": 8644,
      "èĢħçĶŁ": 8645,
      "èĢħä»ĸ": 8646,
      "èĢħåİ»": 8647,
      "èĢħå¹´": 8648,
      "èĢħä½¿": 8649,
      "èĢħä¸Ĭ": 8650,
      "èĢħå®ĥ": 8651,
      "èĢħçĶ¨": 8652,
      "èĢħæĦŁäºº": 8653,
      "èĢħè¿Ļä¹Ī": 8654,
      "èĢħåĲįæĹł": 8655,
      "èĢħå¥³äºĨ": 8656,
      "èĢħå¥³äºº": 8657,
      "èĢħè¡Įæĸ¯": 8658,
      "èĢħè¿ĺä¼ļ": 8659,
      "èĢħä½Ĩæĺ¯": 8660,
      "èĢħä¸ĭåĲĮ": 8661,
      "èĢħä»¥æŃ¤": 8662,
      "èĢħä¸ºçĶ¨": 8663,
      "èĢħç»ıæĹ¥": 8664,
      "èĢħå¼ĢåĲİ": 8665,
      "èĢħè¦ģå½ĵä¼ļ": 8666,
      "èĢħæīĢåĪ°": 8667,
      "èĢħæĥ³äºĨ": 8668,
      "ĠåŃĲæ³ķ": 8669,
      "ĠåŃĲåıª": 8670,
      "ĠåŃĲåľ°": 8671,
      "ĠåŃĲèµ·": 8672,
      "ĠåŃĲèĢĮ": 8673,
      "ĠåŃĲå¸¸": 8674,
      "ĠåŃĲå¥¹": 8675,
      "ĠåŃĲäºĨ": 8676,
      "ĠåŃĲå¯¹": 8677,
      "ĠåŃĲç»ı": 8678,
      "ĠåŃĲæĪĳ": 8679,
      "ĠåŃĲæĹ¥": 8680,
      "ĠåŃĲåĬ¨": 8681,
      "ĠåŃĲå·±": 8682,
      "ĠåŃĲåıĪ": 8683,
      "ĠåŃĲèĢģ": 8684,
      "ĠåŃĲæĥ³": 8685,
      "ĠåŃĲæľī": 8686,
      "ĠåŃĲåīį": 8687,
      "ĠåŃĲæĹł": 8688,
      "ĠåŃĲåŃĲ": 8689,
      "ĠåŃĲéģĵ": 8690,
      "ĠåŃĲè¿Ľ": 8691,
      "ĠåŃĲåİ»": 8692,
      "ĠåŃĲä½¿": 8693,
      "ĠåŃĲå¿ĥ": 8694,
      "ĠåŃĲåħ¶": 8695,
      "ĠåŃĲå°ı": 8696,
      "ĠåŃĲåĽŀ": 8697,
      "ĠåŃĲç¬¬": 8698,
      "ĠåŃĲéĹ´": 8699,
      "ĠåŃĲå¤§æĹ¶": 8700,
      "ĠåŃĲä»¥è¿ĩ": 8701,
      "ĠåŃĲä¹ŁæĦŁ": 8702,
      "ĠåŃĲå¸¸è¡Į": 8703,
      "ĠåŃĲäºĨç¾İ": 8704,
      "ĠåŃĲå¤´åŃ¦": 8705,
      "ĠåŃĲæ²¡åŃĲ": 8706,
      "ĠåŃĲéĥ½çĶ¨": 8707,
      "ĠåŃĲä½ĨæĪĳ": 8708,
      "ĠåŃĲä»¥èº«": 8709,
      "ĠåŃĲè¿Ļä¸¤": 8710,
      "ĠåŃĲçĿĢäºº": 8711,
      "ĠåŃĲéĤ£åľ°åĲĮ": 8712,
      "ĠåŃĲæŃ£èĢģ": 8713,
      "ĠåŃĲå¼ĢæīĢ": 8714,
      "ĠåŃĲä½łæĹ¥æ´»": 8715,
      "åĦ¿ä¹ĭ": 8716,
      "åĦ¿åĴĮ": 8717,
      "åĦ¿ä½į": 8718,
      "åĦ¿ä½Ĩ": 8719,
      "åĦ¿å¸¸": 8720,
      "åĦ¿æĿ¥": 8721,
      "åĦ¿èĢħ": 8722,
      "åĦ¿åĪ°": 8723,
      "åĦ¿çİ°": 8724,
      "åĦ¿è¿Ľ": 8725,
      "åĦ¿ç§į": 8726,
      "åĦ¿åĲİå¾Ī": 8727,
      "åĦ¿æ²¡ä¹ĭ": 8728,
      "åĦ¿è¿ĺå¸¸": 8729,
      "åĦ¿èµ·æŃ£": 8730,
      "åĦ¿ä¸įä¸İ": 8731,
      "åĦ¿åıªçĿĢ": 8732,
      "åĦ¿æľŁæĦıä¸ĭ": 8733,
      "åĦ¿ä¸ºå·±": 8734,
      "åĦ¿çĿĢä¸ĸ": 8735,
      "åĦ¿åŃ¦æĪĲ": 8736,
      "åĦ¿æĬĬå°±": 8737,
      "åĦ¿å¤§å·²æŃ£": 8738,
      "åĦ¿åıĪæĹ¥ç¾İ": 8739,
      "åĦ¿èĢģå¤ļ": 8740,
      "åĦ¿æĦıåĲį": 8741,
      "æĢ»å¾Ĺ": 8742,
      "æĢ»å®¶": 8743,
      "æĢ»èµ·": 8744,
      "æĢ»å¥¹": 8745,
      "æĢ»ç»ı": 8746,
      "æĢ»æĪĳ": 8747,
      "æĢ»åıĪ": 8748,
      "æĢ»çĦ¶": 8749,
      "æĢ»æľī": 8750,
      "æĢ»æĦı": 8751,
      "æĢ»äºº": 8752,
      "æĢ»ä¸Ģ": 8753,
      "æĢ»èĥ½": 8754,
      "æĢ»ç¬¬": 8755,
      "æĢ»å¦Ĥåı¯": 8756,
      "æĢ»éķ¿äºĨ": 8757,
      "æĢ»åľ°æľī": 8758,
      "æĢ»å¸¸ä½ľ": 8759,
      "æĢ»ä¸¤æĪĲ": 8760,
      "æĢ»è¿ĺè¦ģ": 8761,
      "æĢ»æīĭåĽłä¸ĭ": 8762,
      "æĢ»ä¸ĭåŃ¦åīį": 8763,
      "æĢ»åıĳä»İä¸Ĭ": 8764,
      "æĢ»åĲİçĦ¶": 8765,
      "Ġæĺ¯è¡Į": 8766,
      "Ġæĺ¯æ²¡": 8767,
      "Ġæĺ¯æľŁ": 8768,
      "Ġæĺ¯æīĭ": 8769,
      "Ġæĺ¯å°±": 8770,
      "Ġæĺ¯æ¬¡": 8771,
      "Ġæĺ¯éĤ£": 8772,
      "Ġæĺ¯ä»İ": 8773,
      "Ġæĺ¯è¯´": 8774,
      "Ġæĺ¯åıĳ": 8775,
      "Ġæĺ¯ä¸ĸ": 8776,
      "Ġæĺ¯æĹ¶": 8777,
      "Ġæĺ¯åĽ½": 8778,
      "Ġæĺ¯çĦ¶": 8779,
      "Ġæĺ¯èĩª": 8780,
      "Ġæĺ¯æľī": 8781,
      "Ġæĺ¯èĢħ": 8782,
      "Ġæĺ¯å¥½": 8783,
      "Ġæĺ¯åľ¨": 8784,
      "Ġæĺ¯çľĭ": 8785,
      "Ġæĺ¯ä¸Ģ": 8786,
      "Ġæĺ¯çŁ¥": 8787,
      "Ġæĺ¯è¯Ŀ": 8788,
      "Ġæĺ¯é«ĺ": 8789,
      "Ġæĺ¯éĹ´": 8790,
      "Ġæĺ¯äºĨæľŁ": 8791,
      "Ġæĺ¯æŃ¤å¾Ĺ": 8792,
      "Ġæĺ¯æĹ¶åĲį": 8793,
      "Ġæĺ¯åŃĲéĥ½": 8794,
      "Ġæĺ¯ä¹ĭéĩĮ": 8795,
      "Ġæĺ¯ç¾İå¼Ģ": 8796,
      "Ġæĺ¯åľ°äºĽ": 8797,
      "Ġæĺ¯ä»¥åĴĮ": 8798,
      "Ġæĺ¯äº²å¥½è¡Į": 8799,
      "Ġæĺ¯çĿĢäºĭä¸ĭ": 8800,
      "Ġæĺ¯æŃ£å¤´éĹ´": 8801,
      "Ġæĺ¯å·²æ²¡": 8802,
      "Ġæĺ¯ä¸İæĥ³": 8803,
      "Ġæĺ¯ç»Ļä¹ĭçĿĢ": 8804,
      "å¥½èº«": 8805,
      "å¥½äºĨ": 8806,
      "å¥½åĲį": 8807,
      "å¥½å·±": 8808,
      "å¥½ä¹Ī": 8809,
      "å¥½åĩº": 8810,
      "å¥½éķ¿": 8811,
      "å¥½çľĭ": 8812,
      "å¥½è¿Ľ": 8813,
      "å¥½åı¯": 8814,
      "å¥½èĥ½": 8815,
      "å¥½çĪ±": 8816,
      "å¥½åĪ°éĩĮ": 8817,
      "å¥½åīįæīĢ": 8818,
      "å¥½æ²¡æĺ¯": 8819,
      "å¥½åĽłèĩª": 8820,
      "å¥½æ²¡å¤ļ": 8821,
      "å¥½å¥¹æ²¡": 8822,
      "å¥½æł·ä¸Ĭ": 8823,
      "å¥½æīĢä¸Ĭ": 8824,
      "æĹłåĴĮ": 8825,
      "æĹłä»¥": 8826,
      "æĹłçĿĢ": 8827,
      "æĹłç»ı": 8828,
      "æĹłæĬĬ": 8829,
      "æĹłè¦ģ": 8830,
      "æĹłæīĢ": 8831,
      "æĹłæĢ»": 8832,
      "æĹłéķ¿": 8833,
      "æĹłäºĽ": 8834,
      "æĹłä¸Ģ": 8835,
      "æĹłå¾Ī": 8836,
      "æĹłçİ°": 8837,
      "æĹłçŁ¥": 8838,
      "æĹłèĥ½": 8839,
      "æĹłåĲĮ": 8840,
      "æĹłäºİ": 8841,
      "æĹłç¾İé«ĺ": 8842,
      "æĹłè¿ĺæĥħ": 8843,
      "æĹłä¼ļèĢĮ": 8844,
      "æĹłå½ĵå¤ļ": 8845,
      "æĹłä½įåľ°": 8846,
      "æĹłæł·èº«": 8847,
      "æĹłä»¬è¿ĻæĢ»": 8848,
      "æĹłä½łå¤´": 8849,
      "æĹłå¤§æĸ¹åľ¨": 8850,
      "Ġä¹ĭä½į": 8851,
      "Ġä¹ĭæĸ¯": 8852,
      "Ġä¹ĭä½Ĩ": 8853,
      "Ġä¹ĭä¸ĭ": 8854,
      "Ġä¹ĭä¹Ł": 8855,
      "Ġä¹ĭæĦŁ": 8856,
      "Ġä¹ĭæł·": 8857,
      "Ġä¹ĭåĲį": 8858,
      "Ġä¹ĭå½ĵ": 8859,
      "Ġä¹ĭè¢«": 8860,
      "Ġä¹ĭèĩª": 8861,
      "Ġä¹ĭæĥ³": 8862,
      "Ġä¹ĭæľī": 8863,
      "Ġä¹ĭæľĢ": 8864,
      "Ġä¹ĭéģĵ": 8865,
      "Ġä¹ĭä¸Ģ": 8866,
      "Ġä¹ĭå¾Ī": 8867,
      "Ġä¹ĭè¿Ľ": 8868,
      "Ġä¹ĭåİ»": 8869,
      "Ġä¹ĭåı¯": 8870,
      "Ġä¹ĭé«ĺ": 8871,
      "Ġä¹ĭåĲĮ": 8872,
      "Ġä¹ĭçĶ¨": 8873,
      "Ġä¹ĭç§į": 8874,
      "Ġä¹ĭéĩĮå¯¹": 8875,
      "Ġä¹ĭå¯¹èĢģ": 8876,
      "Ġä¹ĭå¦Ĥä¸İ": 8877,
      "Ġä¹ĭå¤´æĢ»": 8878,
      "Ġä¹ĭåĴĮå¤´": 8879,
      "Ġä¹ĭå¤©æĪĲ": 8880,
      "Ġä¹ĭæľŁäºº": 8881,
      "Ġä¹ĭæ¬¡ä¸İ": 8882,
      "Ġä¹ĭå¤´åħ¶": 8883,
      "Ġä¹ĭæĪĲå¹´": 8884,
      "Ġä¹ĭå¤©çŁ¥": 8885,
      "Ġä¹ĭèµ·æĿ¥": 8886,
      "Ġä¹ĭä¼ļçĿĢ": 8887,
      "Ġä¹ĭéĩĮè¿ĺ": 8888,
      "Ġä¹ĭäº²åĴĮåŃĲå¦Ĥ": 8889,
      "Ġä¹ĭç»ıæĪĲ": 8890,
      "Ġä¹ĭç»Ļè¯Ŀ": 8891,
      "Ġä¹ĭæĹ¥ç»Ļä½¿": 8892,
      "Ġä¹ĭæĥħåĲĮ": 8893,
      "Ġä¹ĭæĹłæł·èº«": 8894,
      "åĪ°å¤©": 8895,
      "åĪ°äºĨ": 8896,
      "åĪ°æĬĬ": 8897,
      "åĪ°ä¸ª": 8898,
      "åĪ°åĽ½": 8899,
      "åĪ°åĪ°": 8900,
      "åĪ°åĽł": 8901,
      "åĪ°è¿ĺéĤ£": 8902,
      "åĪ°ä»İæĦı": 8903,
      "åĪ°å¦Ĥä¸Ń": 8904,
      "åĪ°åĪĨèĢģ": 8905,
      "åĪ°åıªå¾Ī": 8906,
      "åĪ°ä»¥çĦ¶": 8907,
      "åĪ°ç»ıä»İ": 8908,
      "åĪ°ä¸İä¸ºæĹ¥": 8909,
      "åĪ°ç»Ļå¦ĤåĽ½": 8910,
      "åĪ°çĦ¶éģĵ": 8911,
      "åĪĨç»ı": 8912,
      "åĪĨå¦Ĥ": 8913,
      "åĪĨä¸¤": 8914,
      "åĪĨä¸į": 8915,
      "åĪĨä½ł": 8916,
      "åĪĨå·±": 8917,
      "åĪĨæĹł": 8918,
      "åĪĨéķ¿": 8919,
      "åĪĨåİ»": 8920,
      "åĪĨåı¯": 8921,
      "åĪĨèĥ½": 8922,
      "åĪĨå°ı": 8923,
      "åĪĨçĪ±": 8924,
      "åĪĨæ³ķä¼ļ": 8925,
      "åĪĨæĿ¥åĪ°": 8926,
      "åĪĨçİ°å½ĵ": 8927,
      "åĪĨæ´»æĸ¯": 8928,
      "åĪĨæĺ¯æ²¡ä¸ª": 8929,
      "åĪĨèµ·å¼Ģ": 8930,
      "åĪĨä¸ºå¤ļ": 8931,
      "åĪĨæĬĬä¹ĭ": 8932,
      "åĪĨä»¬çĶŁåĦ¿": 8933,
      "éķ¿å¤´": 8934,
      "éķ¿ä½Ĩ": 8935,
      "éķ¿å¥¹": 8936,
      "éķ¿çĿĢ": 8937,
      "éķ¿æŃ£": 8938,
      "éķ¿ç»ı": 8939,
      "éķ¿éĿ¢": 8940,
      "éķ¿ä½ł": 8941,
      "éķ¿æĸ¹": 8942,
      "éķ¿ä¸Ģ": 8943,
      "éķ¿çŁ¥": 8944,
      "éķ¿è¯Ŀ": 8945,
      "éķ¿åĲĮ": 8946,
      "éķ¿åĽŀ": 8947,
      "éķ¿æĹ¶æ²¡": 8948,
      "éķ¿éķ¿äºĨ": 8949,
      "éķ¿åľ°çŁ¥": 8950,
      "éķ¿èĢģæľŁ": 8951,
      "éķ¿åīįåŃĲ": 8952,
      "éķ¿å¥½æ¬¡": 8953,
      "éķ¿åĪĨèĢģ": 8954,
      "éķ¿æ²¡ä»Ģ": 8955,
      "éķ¿åıªæīĭ": 8956,
      "éķ¿ä¹Łå¿ĥ": 8957,
      "éķ¿çļĦæĪĳ": 8958,
      "éķ¿ä»İäºĨåıĪåıª": 8959,
      "Ġçľĭç¾İ": 8960,
      "Ġçľĭéĥ½": 8961,
      "Ġçľĭæĸ¯": 8962,
      "Ġçľĭå®¶": 8963,
      "Ġçľĭæīĭ": 8964,
      "Ġçľĭåľ°": 8965,
      "ĠçľĭéĤ£": 8966,
      "ĠçľĭåŃ¦": 8967,
      "Ġçľĭè¯´": 8968,
      "Ġçľĭè¦ģ": 8969,
      "Ġçľĭä¸į": 8970,
      "Ġçľĭä¸ĸ": 8971,
      "ĠçľĭèĢģ": 8972,
      "ĠçľĭåĲİ": 8973,
      "ĠçľĭçĦ¶": 8974,
      "Ġçľĭäºº": 8975,
      "ĠçľĭåĪ°": 8976,
      "Ġçľĭæĸ¹": 8977,
      "Ġçľĭåľ¨": 8978,
      "Ġçľĭçľĭ": 8979,
      "Ġçľĭåİ»": 8980,
      "Ġçľĭä½¿": 8981,
      "Ġçľĭè¯Ŀ": 8982,
      "Ġçľĭå®ĥ": 8983,
      "ĠçľĭäºĭåĪĨ": 8984,
      "ĠçľĭæĹ¶å¸¸": 8985,
      "Ġçľĭèĩªå¾Ĺ": 8986,
      "ĠçľĭåīįåŃĲ": 8987,
      "ĠçľĭåŃĲå°±": 8988,
      "ĠçľĭæĪĲèµ·": 8989,
      "Ġçľĭæ³ķåĲĮ": 8990,
      "Ġçľĭä½Ĩå¾Ĺæľī": 8991,
      "Ġçľĭèº«èĩª": 8992,
      "ĠçľĭçļĦæŃ¤åıĪ": 8993,
      "Ġçľĭä¸ºä»Ģå°±": 8994,
      "Ġçľĭå¦Ĥèĥ½": 8995,
      "Ġçľĭä¸İæĸ¹å¥³": 8996,
      "Ġçľĭåıĳä¼ļ": 8997,
      "ĠçľĭæĪĳå¤§": 8998,
      "Ġçľĭåĩºå¤´ä¸Ĭ": 8999,
      "ĠçľĭæīĢå¤©æĸ¹": 9000,
      "ĠçľĭèĢħç»ıæĹ¥": 9001,
      "ĠçľĭæĹłçİ°": 9002,
      "ĠçľĭåĪĨçİ°å½ĵ": 9003,
      "äºĽå¤´": 9004,
      "äºĽåıª": 9005,
      "äºĽæ¬¡": 9006,
      "äºĽå¥³": 9007,
      "äºĽä¸į": 9008,
      "äºĽæŃ¤": 9009,
      "äºĽæľī": 9010,
      "äºĽå¤ļ": 9011,
      "äºĽè¿Ľ": 9012,
      "äºĽèĥ½": 9013,
      "äºĽåĴĮè¢«": 9014,
      "äºĽæ³ķå¦Ĥ": 9015,
      "äºĽæĬĬè¿ĩ": 9016,
      "äºĽåĴĮåĽ½": 9017,
      "äºĽå¼Ģæľī": 9018,
      "äºĽä¹Łå¹´": 9019,
      "äºĽä¹Īè¢«": 9020,
      "äºĽæĹłå¤§æĸ¹åľ¨": 9021,
      "å¤ļå¤´": 9022,
      "å¤ļè¿ĺ": 9023,
      "å¤ļå¸¸": 9024,
      "å¤ļäºĨ": 9025,
      "å¤ļå½ĵ": 9026,
      "å¤ļæĪĳ": 9027,
      "å¤ļè¦ģ": 9028,
      "å¤ļæĹ¥": 9029,
      "å¤ļåĬ¨": 9030,
      "å¤ļåĪĨ": 9031,
      "å¤ļä¸Ģ": 9032,
      "å¤ļå¹´": 9033,
      "å¤ļä½¿": 9034,
      "å¤ļåı¯": 9035,
      "å¤ļåĲĮ": 9036,
      "å¤ļåĽł": 9037,
      "å¤ļäºİ": 9038,
      "å¤ļäºĨçĶ¨": 9039,
      "å¤ļåĩºé«ĺ": 9040,
      "å¤ļåıĳäºº": 9041,
      "å¤ļèĢĮæĹ¶": 9042,
      "å¤ļäº²å°ı": 9043,
      "å¤ļæŃ£éģĵ": 9044,
      "å¤ļç»ıç»Ļ": 9045,
      "å¤ļä»¬ä½į": 9046,
      "å¤ļåĽ½å·±æ¬¡": 9047,
      "å¤ļæĥ³æĿ¥": 9048,
      "å¤ļèĢħæĿ¥": 9049,
      "å¤ļæĹłæĢ»": 9050,
      "Ġè¿ĺéĥ½": 9051,
      "Ġè¿ĺäºĭ": 9052,
      "Ġè¿ĺéĩĮ": 9053,
      "Ġè¿ĺä¹Ł": 9054,
      "Ġè¿ĺçļĦ": 9055,
      "Ġè¿ĺæĿ¥": 9056,
      "Ġè¿ĺéĤ£": 9057,
      "Ġè¿ĺäºĨ": 9058,
      "Ġè¿ĺå¦Ĥ": 9059,
      "Ġè¿ĺä¸¤": 9060,
      "Ġè¿ĺæĹ¥": 9061,
      "Ġè¿ĺåĲİ": 9062,
      "Ġè¿ĺåīį": 9063,
      "Ġè¿ĺäºº": 9064,
      "Ġè¿ĺåĪ°": 9065,
      "Ġè¿ĺåĪĨ": 9066,
      "Ġè¿ĺæľĢ": 9067,
      "Ġè¿ĺæĸ¹": 9068,
      "Ġè¿ĺçľĭ": 9069,
      "Ġè¿ĺçĶŁ": 9070,
      "Ġè¿ĺåİ»": 9071,
      "Ġè¿ĺäºĭå¼Ģ": 9072,
      "Ġè¿ĺåĪ°æĹ¥": 9073,
      "Ġè¿ĺä¸Ģåĩº": 9074,
      "Ġè¿ĺæ²¡ä¹Ł": 9075,
      "Ġè¿ĺèĢĮåľ°": 9076,
      "Ġè¿ĺå¥¹äºº": 9077,
      "Ġè¿ĺå·²èĢģ": 9078,
      "Ġè¿ĺåľ¨å¥½": 9079,
      "Ġè¿ĺæĪĲäººä¸º": 9080,
      "Ġè¿ĺè¿Ļä»Ģ": 9081,
      "Ġè¿ĺçĿĢä¸ºæĹ¥": 9082,
      "Ġè¿ĺç»ıåĲĮ": 9083,
      "Ġè¿ĺè¯´åıª": 9084,
      "Ġè¿ĺä½łèĩª": 9085,
      "Ġè¿ĺæĦıä¸Ĭ": 9086,
      "Ġè¿ĺéķ¿æĹ¶æ²¡": 9087,
      "æľĢèº«": 9088,
      "æľĢäº²": 9089,
      "æľĢæĪĳ": 9090,
      "æľĢæĬĬ": 9091,
      "æľĢåĪĨ": 9092,
      "æľĢçİ°": 9093,
      "æľĢä½ľ": 9094,
      "æľĢä»ĸ": 9095,
      "æľĢåĽł": 9096,
      "æľĢçĦ¶å¼Ģ": 9097,
      "æľĢäººå¤©": 9098,
      "æľĢå°ıä¹Ī": 9099,
      "æľĢå¤©ç¾İ": 9100,
      "æľĢä¸Ńä»İ": 9101,
      "æľĢèµ·ä¸İ": 9102,
      "æľĢä¹Łä¸¤": 9103,
      "æľĢçļĦåŃĲ": 9104,
      "æľĢä»¥å°ıå¤´": 9105,
      "æľĢä¸ºéĩĮæĪĲ": 9106,
      "æľĢå¯¹è¿ĩ": 9107,
      "æľĢä¸¤å®ĥ": 9108,
      "æĸ¹è¿ĺ": 9109,
      "æĸ¹æīĭ": 9110,
      "æĸ¹éĩĮ": 9111,
      "æĸ¹çļĦ": 9112,
      "æĸ¹èĢĮ": 9113,
      "æĸ¹å¦Ĥ": 9114,
      "æĸ¹ä¸İ": 9115,
      "æĸ¹åıĳ": 9116,
      "æĸ¹è¢«": 9117,
      "æĸ¹èĢģ": 9118,
      "æĸ¹çĦ¶": 9119,
      "æĸ¹åĦ¿": 9120,
      "æĸ¹å¥½": 9121,
      "æĸ¹å¾Ī": 9122,
      "æĸ¹å¿ĥ": 9123,
      "æĸ¹è¯Ŀ": 9124,
      "æĸ¹é«ĺ": 9125,
      "æĸ¹å·±æŃ¤": 9126,
      "æĸ¹åıĳèº«": 9127,
      "æĸ¹å¾Ĺæĸ¹": 9128,
      "æĸ¹ä¸ŃæľĢ": 9129,
      "æĸ¹å¯¹ä¸İ": 9130,
      "æĸ¹ä»¬è¿ĩ": 9131,
      "æĸ¹åĽ½è¦ģä¸ĸ": 9132,
      "æĸ¹åĩºåĪĨ": 9133,
      "åľ¨å¾Ĺ": 9134,
      "åľ¨åıª": 9135,
      "åľ¨æľŁ": 9136,
      "åľ¨éĤ£": 9137,
      "åľ¨ä¸İ": 9138,
      "åľ¨ä¸į": 9139,
      "åľ¨æĥħ": 9140,
      "åľ¨ä¹Ī": 9141,
      "åľ¨èĢħ": 9142,
      "åľ¨éģĵ": 9143,
      "åľ¨ä»ĸ": 9144,
      "åľ¨è¿Ľ": 9145,
      "åľ¨åĽł": 9146,
      "åľ¨äºĭå®ĥ": 9147,
      "åľ¨éĩĮåĪĨ": 9148,
      "åľ¨éĩĮä¸º": 9149,
      "åľ¨ä»Ģå¸¸": 9150,
      "åľ¨æĥħåĦ¿": 9151,
      "åľ¨åīįæ´»": 9152,
      "åľ¨æ²¡æ¬¡": 9153,
      "åľ¨æĸ¯å°±": 9154,
      "åľ¨çļĦå°ı": 9155,
      "åľ¨çĿĢåĲİèĢħ": 9156,
      "åľ¨ä»İéĿ¢": 9157,
      "åľ¨å·²æĺ¯å¿ĥ": 9158,
      "åŃĲå¤´": 9159,
      "åŃĲéĩĮ": 9160,
      "åŃĲå·²": 9161,
      "åŃĲå¼Ģ": 9162,
      "åŃĲå¤§": 9163,
      "åŃĲåĲİ": 9164,
      "åŃĲåĦ¿": 9165,
      "åŃĲå¥½": 9166,
      "åŃĲä½¿": 9167,
      "åŃĲå¿ĥ": 9168,
      "åŃĲçĶ¨": 9169,
      "åŃĲåĪ°æĦŁ": 9170,
      "åŃĲäºİä¹Ī": 9171,
      "åŃĲæ²¡è¿ĺæĢ»": 9172,
      "åŃĲæĦŁä¹ĭ": 9173,
      "åŃĲä»İæīĭ": 9174,
      "åŃĲç»ıè¿ĻåĽ½": 9175,
      "åŃĲèĢħä½¿": 9176,
[...]
